woods 8116
hanging 9234
woody 21167
sation 11019
EU-US 22192
ei@@ 1899
Vulcan 22578
Western 1995
Euro 2717
快@@ 30613
项@@ 32452
Gest@@ 22790
co-operation 5628
Valle 19250
appropriation 20998
ï@@ 11580
bringing 3095
ሻ 31509
賢 32755
wooden 5064
讨@@ 31741
Miert 25635
图@@ 30319
ゼ 32756
GA@@ 13794
Tuesday 694
風@@ 30766
Plut@@ 28156
270 10345
275 12008
watch@@ 9732
sustaining 20265
errors 5753
yles 20243
cooking 5819
☯ 32757
distingu@@ 14296
Hamilton 12477
Treu@@ 29220
designing 10765
replaced 4306
shocks 16544
EIRA 28023
⑶ 34134
affiliates 16515
ching 3866
affiliated 13684
theless 25674
Börse 18266
kids 3240
Certific@@ 28385
controversy 11053
Stand 20612
golden 6358
Schüssel 27280
projection 15826
sters 2917
wr@@ 13137
Was@@ 21569
stern 18333
wo@@ 4107
interpre@@ 22320
insecurity 15600
CFSP 16055
Ю 31929
ity@@ 17512
employ@@ 24654
music 806
therefore 350
distortions 15172
Self-@@ 23389
musik 28434
tening 11111
mosa@@ 16647
populations 7727
Clients 25134
Deutschland 13292
sage@@ 25202
参@@ 30714
gencies 24892
circumstances 2390
intake 11308
locked 8270
φ@@ 28580
Colombia 8888
Le 4997
wand 25695
La 2460
reduc@@ 25034
Li 16739
Czechoslov@@ 19660
Ls 27317
want 243
absolute 4535
LG 20744
LD 21192
LE 10518
LB 24923
LA 8118
travel 1295
Zweig 28032
LV 25502
LT 17117
playback 20988
LS 23875
LP 16986
bankrupt@@ 27046
躇@@ 32758
LY 20589
С 21931
ŏ@@ 30216
L. 10769
Stiftung 23921
克 30715
Dialogue 16252
말 34135
wrong 2135
Ö 25118
18th 3928
Guatem@@ 26512
CFP 19188
萄 34136
welcomed 4669
จ 32759
assing 14802
Entwicklungs@@ 28986
rewarded 13762
邮 34137
welcomes 5271
Abbott 14306
His 3617
26@@ 1111
fit 2907
ध@@ 31510
fix 6179
PE-@@ 27389
inas 14813
ergonom@@ 17348
kam@@ 13191
fic 9180
Pv@@ 23752
fia 22629
fig 21492
 30443
fik 29298
fin 16529
fil 26094
Lak@@ 12977
zucker 29192
ussel@@ 18194
antum 15960
toge@@ 25743
察@@ 34138
effects 1496
bure@@ 15895
liberalised 23590
践 32760
arrow 13182
osis 13277
allas 10943
390 14409
embro@@ 16110
Veri@@ 22433
zol@@ 27979
ober@@ 27677
dge 3947
toute 26656
encourage 2775
ರ@@ 32761
adapt 5678
連@@ 31742
脱@@ 31403
aktuellen 29708
strate 18108
estimate 7473
ך 32453
bach@@ 14258
universally 19668
陶@@ 31930
Vo@@ 5201
Gob@@ 22434
ɫ 31511
debat@@ 26494
ministries 18032
disturbed 14701
ە@@ 31931
继@@ 31512
ე@@ 29989
Niger 20363
Ste@@ 2815
Traveller 22451
-Spe@@ 26609
Ļ@@ 31036
lubri@@ 18442
bl@@ 2683
花 30841
olds 10990
spokes@@ 2762
renovated 4876
service 342
needed 1017
comp@@ 3661
master 3139
ouira 26074
rewards 14120
Ấ@@ 34139
focuss@@ 22459
ゴ@@ 31227
Oracle 16731
magnific@@ 22068
ĸ 32762
positively 11536
feasibility 15338
ACK@@ 23320
í 9010
Catalunya 16365
Visu@@ 27577
install@@ 14944
寻 32763
feeling 2583
best-@@ 9543
应 31404
Chicago 5258
spectrum 6698
worsen@@ 22891
dozen 8529
scrap@@ 18213
affairs 4133
勝@@ 32764
Fontaine 21240
invali@@ 21884
Dial@@ 29501
y-@@ 1297
They 7321
simp@@ 27639
shipments 14581
DEM@@ 26529
ful@@ 6147
committing 15400
Hor@@ 6035
simplify 10509
door-@@ 27177
mouth 4046
two-@@ 3275
singer 6248
HER@@ 15253
tech 6984
yl@@ 7776
non-EU 18195
Mor@@ 2995
saying 1290
შ@@ 30547
thiness 28947
Par@@ 2434
Markt 24937
Cunha 26596
A5-00@@ 22150
tempted 16992
Resources 10346
Reisen 29168
rics 15670
Ọ@@ 31932
rich 1617
rice 6951
底@@ 32454
plate 6848
4.5 8621
Tricks 29193
Rati@@ 27318
Antalya 21959
d-up 16463
altogether 8836
XLSTAT 26720
platz 15360
assi@@ 9279
黄@@ 30975
nicely 14375
gen-@@ 16527
patch 11078
Rio 6145
stol@@ 26151
Expan@@ 29457
achie@@ 27791
extrem@@ 26049
pioneering 15375
透@@ 31228
clarified 14304
sensitivity 9817
etic 7632
osity 14218
.it 11493
iry 25821
lots 3018
irs 8456
Figures 21058
proce@@ 18697
ZO@@ 23455
retro@@ 8732
ations 967
ira 19651
ire 4566
Advanced 13802
한@@ 30485
Work@@ 19763
extend 3791
nature 913
例 34140
extent 2274
Shel@@ 16005
機 32455
ми@@ 27325
heating 3528
Laura 15361
welche 28530
eradicate 18688
Apartment 10215
seu@@ 27248
obje@@ 27427
DIM@@ 26197
co.@@ 5120
organisational 13876
union 2440
. 4
advent@@ 13168
much 256
ځ@@ 32765
Frassoni 27017
guil@@ 8796
ซ@@ 31105
abund@@ 22337
TO@@ 9890
TZ@@ 26986
paradig@@ 26759
doubts 7360
spin 12795
coo@@ 23258
ワ@@ 31139
ד@@ 29937
Flach@@ 28342
MY@@ 26026
Scandin@@ 29184
professionally 15571
employ 10905
elaborate 12758
conditioned 12805
memorial 10737
recover 7372
ignored 8315
zah@@ 22776
devo@@ 13045
democracies 14204
split 4811
hony 21630
än 29394
tensive 27041
viertel 27665
qualifications 8182
workforce 8416
M.@@ 12110
Tak@@ 13465
är 25145
Hostal 23934
EBA 26077
venant 9293
academic 5630
inc@@ 2159
dk@@ 26549
corporate 2459
Rapid 23474
roll@@ 10827
stream@@ 25005
FL@@ 13740
deal@@ 19120
itance 29127
loo@@ 7432
religi@@ 22471
Happy 18567
橋@@ 32766
hai 21759
ham 4369
han 11768
Oscar 11634
Sec@@ 7456
had 88
advancement 17448
hay 19240
Baghdad 11386
な 31743
আ@@ 32767
beloved 10528
券 34141
har 10389
has 40
hat 7920
Smar@@ 27354
istan 27839
municipal 8976
survival 7011
Lampedusa 23935
Mich@@ 8707
indicative 17132
shadow 5978
commodi@@ 26578
gade 17093
Schleswig-Holstein 23492
Steven 12397
Swedish 4635
beneficial 7517
策@@ 32768
crowd 5498
си@@ 26831
crown 10759
和 30890
Kais@@ 27171
Wies@@ 22781
Firma 28499
亮@@ 31744
bottom 3223
res 1499
Compani@@ 26130
Garda 13700
Facebook 3799
济@@ 32456
induc@@ 18354
sing@@ 11686
Calle 19728
starring 15642
endor@@ 18926
渋@@ 32769
ader 19858
ades 8559
cular 11883
President-in-Office 4675
aded 6495
線@@ 32457
aden 26061
吸@@ 32770
schlu@@ 29709
net@@ 6326
Ą 30312
administer 19642
beings 4602
Management 2517
onies 15529
Dai@@ 23936
牙@@ 31229
张@@ 31140
mbH 26678
fabric 9128
altitude 8101
valu@@ 14676
WIL@@ 21924
Heidel@@ 27856
ứ@@ 32771
Ende 27133
ゆ@@ 31513
ve@@ 2344
柜@@ 34142
າ@@ 31933
编@@ 32772
Spie@@ 28157
refre@@ 23481
玉@@ 32773
͘ 31934
safeguard 7031
envis@@ 28441
other@@ 23391
congratulations 10688
echo@@ 8763
韓@@ 32774
non-discrimination 19655
County 5112
open-air 15922
unanimous 12411
ক@@ 32775
Haus@@ 20958
necessit@@ 21087
忻 32776
Diabetes 26565
dues 24884
Ἔ@@ 31935
passenger 4479
ños 21467
own@@ 17309
Terror@@ 19126
minibar 9822
tis@@ 22292
Cap@@ 5594
Dalli 27592
Tool@@ 20767
ECOFIN 20752
delines 21743
rols 24510
eventual 15771
Her@@ 3156
quick@@ 16289
LateRooms.com 21255
role 640
VEN@@ 26111
roll 4534
precau@@ 22841
Swiss@@ 22153
intend 5455
SIT@@ 25583
transported 8886
Melbourne 8128
ham@@ 5052
intent 9326
OV@@ 23501
variable 8238
Gardens 13509
づ 32777
鎚@@ 32778
Sudanese 18334
broadcast@@ 26027
￥ 30976
chain 3481
whoever 9551
oso 21400
osa 19961
chair 4486
ose 19101
Kra@@ 10919
macht 24796
voc@@ 9001
fro@@ 7003
Tourist 15075
crates 24548
St-@@ 23262
Tourism 7801
downloading 10843
ˇ 31141
Funk@@ 24476
Pre-@@ 21631
choice 1272
embark 16956
stays 6790
exact 5377
minute 2127
Mitte 23540
Tax 12817
Move 22426
Habit@@ 19810
Tal 27612
Verbund 29508
stum@@ 14748
Git@@ 25268
trails 8010
M. 5975
Ap@@ 1529
Ae@@ 25305
shirts 12017
痴@@ 32458
celebrated 6249
Roulette 24728
UNESCO-@@ 29339
geography 17634
boost 4532
Me 7518
drafted 10709
Ma 20284
honour 6261
Mo 15306
aku@@ 22332
Mt 12487
Ms 3394
Mr 142
My 4978
Daten 27731
ME 11258
Lang@@ 20060
MA 8492
MC 18124
MB 5844
MM 22705
ML 19534
MO 17351
partments 21271
cette 17948
queue 18490
MT 21235
accomplished 9454
MP 8972
MS 6749
perpetu@@ 18985
bour@@ 17567
info@@ 11944
UV-@@ 26824
liance 17152
Jum@@ 21584
wana 22145
Wes@@ 15956
ϊ@@ 30891
Kyo@@ 27084
芝 32779
Nei@@ 18012
undergone 16071
mak@@ 8922
August 361
working 450
Person@@ 14086
opposed 4603
plo@@ 19375
ad@@ 917
Klaus 13896
nas@@ 13058
nad@@ 24264
milli@@ 8634
Bars 26437
急@@ 31514
approving 17147
Zentrum 15293
prefer@@ 22154
ÖR@@ 29573
Qualität 29740
riders 10361
Noti@@ 27528
ambres 29522
originally 4042
abortion 10746
ABAP 25163
harmonious 14511
۵ 31936
agra@@ 10332
following 421
engra@@ 18051
decommission@@ 27806
hre@@ 2821
指 32780
mirrors 15255
米@@ 31405
locks 15882
Symphony 12470
ě 24993
ö@@ 6966
thanking 12134
葉 34143
チ@@ 30232
atar 17780
Corporate 9461
Curren@@ 29795
surfing 11154
は@@ 29984
conscious 6497
x-@@ 6912
acional 26948
tiques 25895
jured 27486
pulled 7322
essors 16250
orch@@ 16685
晤@@ 34144
webpage 19785
LIN 26118
years 119
SM@@ 9643
structuring 20486
episodes 12790
Maritime 13162
nic@@ 15823
Sit@@ 15673
Differ@@ 23129
Ĳ 34145
suspension 8329
troubled 11552
recipients 13858
civilian 6562
Deutsche 4690
indigenous 8614
drilling 11564
sorted 14368
圧@@ 34146
\ 2330
dio@@ 11609
aft 25913
jected 17981
Experiment 28024
ˆ@@ 31745
instability 11716
quarter 1744
Bell@@ 13888
retrieve 18312
receipt 7687
Live 8920
sponsor 12378
entering 5101
traine@@ 12834
wegen 28263
disasters 7388
fil@@ 2524
寶@@ 31515
Michigan 10669
seriously 3407
trauma 16372
internet 1508
Transfers 29614
12-@@ 2173
Sy@@ 7866
counter@@ 5918
intoler@@ 25730
incentives 7246
maschinen 27986
complicated 5318
forma@@ 27281
concentr@@ 28866
资@@ 30644
SEC@@ 25782
modest 8350
initiate 11839
aboard 10553
neglect 15839
emotion 13316
Lieb@@ 26082
oni 7672
saving 4329
ono 21889
spoken 4080
ona 5244
ong 4459
ond 16007
one 52
ony 6335
rag@@ 18848
ນ 31516
ons 1120
family-@@ 13822
ont 9345
Confederal 22983
Monday 728
Mal@@ 4078
Frontex 18754
erischer 28850
specialists 5942
History 7159
Mittel@@ 25839
inflic@@ 13877
Math@@ 20677
crossroads 19409
Hubert 18620
究 31406
ball@@ 11508
pho@@ 7484
substan@@ 28474
均@@ 32459
怎@@ 31937
proactive 16694
Bürger 29731
illness 6511
emed 21935
combin@@ 25957
turned 1953
locations 2940
Vir@@ 16161
Field 15160
smart@@ 8070
Kul@@ 23599
borough 16115
utable 14160
invite 4718
-and-@@ 11455
fashionable 13821
Lá@@ 27497
ব 31938
zon 22623
zoo 14566
intends 6292
Hall 4037
printer 9594
stently 23432
opposite 3715
Ec@@ 15728
fragi@@ 23695
buffet 3571
transp@@ 13159
EP@@ 3832
printed 5183
۞ 30892
aut@@ 16965
phic 24227
phin 18539
Chef 22678
Chen 19973
Geh@@ 25528
stark@@ 26579
Boli@@ 22015
Sky 10478
friction 17761
Ethiopia 13140
ん 30645
inconsistent 18717
aggressive 7728
Ski 14300
EX-@@ 27775
워@@ 32781
presse 27372
Sach@@ 21183
presso 17498
Ü@@ 16591
Bah@@ 15909
balconies 12991
stas@@ 26234
awaiting 12620
그@@ 32782
rondis@@ 21826
Facilities 9535
tika 25760
YER 23876
vision 2736
exchange-@@ 28413
enri@@ 21364
ڬ@@ 32783
John@@ 12150
redu@@ 27568
approxim@@ 26050
impressions 12670
Kosten@@ 29681
Worldwide 20368
hl@@ 25047
alarming 14631
stipul@@ 19006
Shi@@ 4344
vaccines 15991
Cli@@ 8213
enjoys 7004
셔@@ 31939
Ὑ@@ 32784
Anspruch 29907
awards 6025
194@@ 12154
concentrated 8229
small@@ 19278
fes@@ 11896
Stability 7724
s 55
fel@@ 7179
workplace 8937
concentrates 19607
她 34147
UN@@ 4470
allowance 13763
瘁 34148
7-@@ 961
设@@ 30977
puri@@ 13020
west 2475
ㄅ@@ 32978
Ligh@@ 17622
ल 31142
practised 19183
motives 15880
wants 1905
formed 3729
gger 13452
photos 2083
vue 24575
gged 8215
former 842
co-ordination 18840
Philipp@@ 20346
Commander 14446
newspaper 3760
situation 528
라 31517
Komm@@ 24856
ár@@ 22615
所 31940
parti@@ 6718
engaged 5150
Elevator 14213
grapher 18048
围@@ 31746
technology 711
Admiral 21437
eler@@ 18772
verified 12005
Tra@@ 3357
淨@@ 34149
Seine 22095
otti 19205
Sok@@ 24797
gre@@ 2226
otto 14098
heal@@ 10923
Van@@ 11550
visually 18239
managements 29348
eling 8385
eline 11540
IRS 23234
lator 21184
XVI 15513
edges 13009
wired 17845
Clean 19947
IRA 21591
IRC 21230
IRE 24383
tracking 9530
domin@@ 10292
Will@@ 18946
NR@@ 13939
dimension 4307
Spi@@ 12541
being 203
spok@@ 27980
È@@ 25922
Diesel 24313
Conservative 12596
Fat@@ 22835
recycled 15558
途 32785
Soft@@ 23155
려 32786
generator 15350
.The 10052
Guantanamo 19821
Montparnasse 24166
lowing 3740
igno@@ 21250
satelli@@ 25199
traffic 1912
preference 11005
secon@@ 20548
world 157
postal 8258
ќ 30767
￡ 31230
º 19772
Valent@@ 13260
atz@@ 24942
停@@ 30978
enery 19328
satisfactory 8014
Chil@@ 17554
效@@ 32460
Engel 25122
bene@@ 19892
complementarity 23908
diving 6421
turn@@ 7818
TRIP@@ 22956
CON 22592
restoring 13090
tigh@@ 10558
retains 16888
leadership 3067
禪@@ 34150
Out@@ 9578
prepared 1724
騙@@ 32787
Revolution 8423
pir@@ 10045
An@@ 1302
pig@@ 21387
disabilities 10645
atives 11382
modern@@ 15753
host@@ 10944
market-@@ 14117
No 1957
18-@@ 5355
漁@@ 34151
prepares 16876
lively 7083
Connec@@ 9187
24,@@ 12089
NH 21395
NI 11428
NL 9438
Durban 22823
NO 11352
NA 15230
NE 16812
NG 20266
Peninsula 13681
sealed 12311
Con@@ 1350
NS 24549
bubble 13958
ve-@@ 8175
NV 23456
witt 24804
Hannover 12621
ghted 18071
N. 8057
bran@@ 15555
spiritu@@ 18391
societal 19179
硬@@ 32788
biomet@@ 27807
ghter 9877
Ac@@ 4215
with 19
abused 14663
pull 6721
rush 10808
monopoly 11486
asse 16461
assa 24695
循@@ 32461
cra@@ 1716
abuses 11559
trips 5013
Lac@@ 19131
 30351
Airlines 6522
watches 14002
MEPs 7155
follow-up 8289
formulation 16155
energe@@ 25483
watched 8153
ggio 23450
树@@ 34152
cream 6711
Real 7424
ideally 6819
Read 10497
オ 32789
unparalleled 19279
Password 24465
Lady 6879
enheit 26028
김@@ 31231
ection 15470
refunded 18050
y-to-@@ 21827
Hahn 22784
9.@@ 1404
tricks 13590
exten@@ 21004
enrichment 18398
Hardware 22745
Casinos 28082
eign 20360
董@@ 32790
sco 15912
sch 7972
caused 1846
ceramic 13018
工@@ 30299
stereot@@ 26438
Ski@@ 19518
conditionality 23837
hetero@@ 19941
causes 3436
† 22013
sylv@@ 28716
preh@@ 17066
堰 32791
marb@@ 26800
norm 15780
Gastronom@@ 28574
24th 5836
Info@@ 19338
sans 15097
ading 7348
ommen@@ 27199
sang 15553
sand 5127
cker@@ 15371
invol@@ 23193
small 369
sank 20666
quicker 14860
199 11778
198 15830
195 12155
194 14354
197 15705
196 10633
Ki@@ 5118
190 8704
193 16027
192 13954
past 684
星@@ 30893
displays 7657
pass 1777
EDPS 26260
investment 980
accreditation 19870
-based 4710
禅@@ 32462
單 32792
io@@ 9828
prevailed 19084
lein 25295
MEDIA 23003
spy@@ 28874
full 497
OEM 21216
Charlie 12644
Westfalen 28442
civilians 7485
Capit@@ 12132
香@@ 30614
Spencer 19832
AN-@@ 27559
Ϣ 34153
Ω 30462
experience 485
otive 23619
prior 2189
periodic 19394
i.@@ 16377
游@@ 30670
abandon@@ 20702
benef@@ 23435
followed 1968
adidas 19635
pling 12757
SESAR 27817
読@@ 30671
様@@ 34154
step-@@ 19546
attendance 11477
mors 13450
Gazprom 21756
optimi@@ 14773
contro@@ 22646
Provence 16081
more 51
door 2033
initiated 7127
substances 4341
IONAL 23048
company 300
corrected 13031
aders 12087
tested 3926
bian 9020
属 31941
Š 28859
áz@@ 26136
Ener@@ 23219
Jahrhundert 29880
brie@@ 19601
installing 9219
learn 1348
ሕ 31942
band@@ 15975
changeover 21324
Panasonic 18298
抹@@ 32793
wieder 25336
extrac@@ 13844
geni@@ 12327
Musharraf 20068
cere@@ 29730
mehr 20604
Glasgow 10325
huge 1577
respective 3607
enlarge 15312
dismissed 9652
Fusion 22884
gol@@ 6486
曹@@ 32794
狂 34155
intended 2245
磁@@ 32795
variant 16601
OTHER 24655
aro@@ 6643
lanka 26310
jiang 21123
degre@@ 26089
West@@ 5282
Nero 15161
DP@@ 23948
go-@@ 13366
replied 8791
Sour@@ 22261
installed 2787
wide-ranging 14937
resorts 9207
葉@@ 31747
paper 1944
signs 3170
installer 17313
roots 5820
wned 11025
symptoms 5536
Fisheries 7863
Brussels 2656
sauce 12502
Elisa@@ 27981
colleague 5323
변@@ 32796
oram@@ 28121
Elektronik 27781
decor@@ 13105
LIM@@ 24352
書@@ 30894
日 30495
child@@ 20711
ussi@@ 17933
ぬ 32797
Authority 5303
tton 21147
courses 2853
Republic@@ 29896
shocking 14921
reactions 9026
te@@ 914
enh@@ 12398
TR@@ 6415
Ima@@ 17389
mail@@ 11723
የ@@ 30895
research 515
Th@@ 752
BIO@@ 24554
Report 4662
offline 13079
Brun@@ 11874
Prof. 9547
occurs 7033
synth@@ 28295
homosexu@@ 15968
Lomé 21592
Builder 23555
LAND 26339
Nine 19259
ecologically 21005
Astro@@ 23559
definition 3828
pairs 9866
Feira 25079
ausch 25469
Thyssen 24337
fail@@ 20286
precautionary 14749
Cache 28394
Dalai 16254
Hack@@ 21483
preservation 9439
ADSL 24668
┤ 30406
avec 11082
ussell 13927
Reco@@ 25551
calculations 11974
aver 18196
坪@@ 32463
廉 34156
寺@@ 32798
day@@ 5781
tedness 18649
gmati@@ 24692
elling 5094
pum@@ 10616
ise@@ 21925
eiling 23960
condolences 21072
Telecom 21755
dismantling 16751
ſ@@ 30548
很 32799
odore 25765
organisations 2323
reorganisation 22885
Stru@@ 21438
sell 2912
י@@ 29142
Food 5114
Norway 5034
self 5161
 30549
also 49
recognizing 16847
ế@@ 30424
sely 6667
GER@@ 22058
় 31943
sels 25523
singles 15173
ຈ@@ 32800
virus 5894
heb@@ 23889
inu@@ 20236
understands 11567
⑥ 34157
seize 13276
cca 15072
sometimes 1507
flexib@@ 29395
Voll@@ 28002
ŷ 30367
sulph@@ 25119
Portfolio 26152
barrel 12457
arten 26798
pipes 11445
wording 10909
ゃ 33090
accommodations 8844
bookings 11660
Hat 20508
occupation 6391
Bulgarian 9556
Bass 26078
Palast 26637
double-@@ 8670
ürz@@ 23130
Strate@@ 24486
00-@@ 5255
Base 15260
Dirk 21032
gni@@ 15489
columns 12711
secular 12241
sunny 6671
zionale 22757
tus@@ 23595
remedy 10562
班@@ 32801
Tren@@ 18374
atively 7586
tability 21022
bytes 13961
nine@@ 17169
GROUP 23493
Glacier 21294
312 15098
activists 6998
317 20454
Des@@ 6549
pay-@@ 20397
collectively 13914
moun@@ 16556
analog 17376
shower 2315
forec@@ 10552
MON@@ 18351
exchange 1472
alization 5195
¸ 29980
Simul@@ 26180
15th 4174
faul@@ 16520
untouched 17513
FIS@@ 25048
mista@@ 15359
Long@@ 16746
tres 23611
lass 26747
last 185
道@@ 30233
3-star 11103
connection 1411
azza 22381
lash 14728
dder 11333
bell 8063
ometer 22973
acted 6661
adaptation 8035
bels 25447
dden 12451
belt 8697
8,@@ 3675
PUBL@@ 26960
サ@@ 30587
Cars 21849
Carl 12796
EU-@@ 6276
Care 9807
品 32802
jun@@ 9465
Establi@@ 24805
es.@@ 5989
lessly 8081
moderation 21073
XX@@ 11143
despite 1246
Michel 9176
presses 13852
≧ 34159
IP-@@ 23606
expanded 5620
budget 951
admire 9595
Büh@@ 28793
轿@@ 34160
pressed 5710
32 481
Market 3190
lade 27583
Drucker 28325
vom 17599
von 2878
motors 14906
htt@@ 3973
vor 6597
vos 20544
34 551
voy 10153
Tali@@ 27401
cuisine 3515
恩@@ 34161
offence 13165
meteor@@ 19228
피@@ 32803
cers 11740
ญ@@ 31037
Doh@@ 26580
dread@@ 28475
ٍ 31518
projekt@@ 28305
Download 16168
Anzei@@ 28535
relax@@ 24785
Damas@@ 13214
rie@@ 10073
ລ@@ 32804
엠 32805
riv@@ 18969
Namen 29438
Programmes 21793
bench@@ 26699
Karl 11423
O. 19026
r@@ 1039
patron@@ 14341
inations 9929
defin@@ 22107
princip@@ 19805
Vigo 23675
ore@@ 11425
Licht@@ 24072
execution 5944
率 34162
reap 20183
々@@ 31519
parents 1967
Marino 19251
Marina 8509
製@@ 31944
art@@ 6246
Marine 9963
On 5218
emergency 3236
Oh 6713
Of 7034
couple 2319
Ï 28838
wives 11474
emergence 11436
Os 16137
Or 17403
ON 5359
OM 17329
OL 14342
OK 6638
OJ 12001
OF 4551
pounds 9541
OC 22085
individuals 2645
Wiesbaden 21723
OX 26179
tribes 12138
OU 27613
OS 3277
OR 7533
kirche 24713
OP 20207
Inspec@@ 18392
C-@@ 6630
NCC-@@ 26748
bi-@@ 21241
女@@ 30646
晴@@ 32464
ital@@ 22842
tisch 28541
х 21905
World@@ 18099
Nap@@ 16086
ghtful 14137
Anglo-@@ 19866
ధ 32806
Blingee 25937
Frank 6941
measurements 5209
拳 31232
Frans 25035
behave 13661
cool@@ 9049
셀@@ 32807
Franz 11527
Aviation 14557
Cin@@ 14138
LEADER 26204
Din@@ 17244
ད 32808
Operation 15509
deserved 16037
venti@@ 23182
打@@ 31143
Ost 28106
影 30842
deserves 8650
DER@@ 21804
Omni@@ 26002
inte 24566
需 32809
Virtu@@ 24831
terrorists 8160
zzles 18242
into 101
ints 7209
sightseeing 9837
uncertainties 14058
span 11009
ℤ 34163
spam 11691
obsol@@ 28453
gases 9104
Charme 29553
Nem@@ 22706
User 8447
ض 30768
opens 5182
chu 23087
CT@@ 13786
l@@ 579
Journ@@ 21710
Amnesty 19631
Resolution 11728
considerable 3134
open@@ 1840
书 32810
Memorandum 20824
ώ@@ 29861
maturity 13504
르 32811
.at 10234
sum 4767
mau@@ 23995
organ@@ 16428
Sofia 13520
fabrik 26992
Distribut@@ 28145
守 34164
unsafe 20406
chal 27264
globally 8712
chas 26384
diverse 4645
chat 6321
Sierra 9480
沒@@ 34165
̣ 31233
cushi@@ 16605
uranium 13837
订@@ 32465
린@@ 32812
OPERATION 26864
revision 6804
cultiv@@ 12203
Julius 20801
委@@ 32813
reprodu@@ 26090
っ@@ 30110
Espa@@ 27476
suppression 18563
lang 17696
erous 21901
lane 11172
land 655
algorithm 20073
Leipzig 9460
terior 24177
beverage 14512
lans 23655
singen 27107
Ferdin@@ 28922
ห 30615
ang@@ 5704
broaden 18792
Jim 9379
韩@@ 34166
EICH@@ 28575
broader 6774
istic 8044
Notice 21523
könnte 29742
istik 28186
lum@@ 10826
protection@@ 28828
S-@@ 5927
Vä@@ 26301
resources 979
versary 18029
uploaded 10794
press@@ 9522
Organ 28128
straße 17720
Islam@@ 11541
sc@@ 1544
誉@@ 34167
त 30896
petitions 19556
Clin@@ 23354
minerals 11530
Verbindung 29685
SV@@ 17565
Estonia 7451
ascript 27939
垂@@ 34168
f 855
fewer 5641
world-class 17422
Müll@@ 27833
co-financing 23254
Sl@@ 24448
125@@ 13722
Template 27694
ﾔ 32466
synchron@@ 11881
video 1181
dynamics 11656
Bereich 28892
Transformation 27159
昼@@ 34169
ো@@ 32814
탱 34170
business 326
萄@@ 32467
-of-@@ 12915
multimedia 9845
Rezeption 29890
ο@@ 18313
flowing 11453
卫@@ 34171
periodi@@ 24791
Freedom 12283
见@@ 30843
accommod@@ 15394
не@@ 24189
Att@@ 10379
個@@ 30897
TFEU 23291
譯@@ 32815
╩ 30167
Recycling 28100
ould 11076
survey 3959
Dür@@ 17514
dson 9540
maker 5241
ე 32816
Category 9848
riva 25135
Orthodo@@ 28536
Cr@@ 18947
ʂ@@ 32817
wand@@ 21795
raum 27178
posium 19232
confidence 2340
管@@ 30844
Sole 23321
EU@@ 6226
next 355
ケ 31945
eleven 11537
assuring 17038
NATO 4574
verly 17339
steh@@ 27136
о 21193
losis 29444
宗@@ 32818
歌 31946
ד 30550
ኦ@@ 31520
baby 3706
customer 1035
Madam 1778
integrating 11027
Meth@@ 22511
clients 2007
etti 12090
etto 15981
process 376
lock 5364
etta 11037
ette 5261
promotional 11687
ʒ 31234
stoffe 29396
권@@ 32819
Bam@@ 17988
D.C. 12505
君@@ 31947
educational 4233
lities 22135
hormones 17858
ez@@ 24167
comedy 11047
intelligent 6491
greatly 5402
tagon@@ 20287
Red 3479
realized 5792
æ 28443
house@@ 11301
robot 12602
One 3730
60-@@ 13400
ché 21919
lack@@ 13889
Drink 25851
insight 7078
总@@ 31749
deduc@@ 9022
喫@@ 31750
onships 9808
perfect 1177
Scientific 13393
Emergency 20272
meantime 7065
Diversi@@ 29032
Fragen 29318
derivative 20572
Vec@@ 18292
Sender 28359
staat 29065
請 32820
Register 15199
fai@@ 12648
Königs@@ 26331
Works 11108
realize 5192
fragmented 18751
reconstruction 6314
scenic 12671
shortage 10866
Inte@@ 25938
glasses 11192
enco@@ 19223
unte@@ 25276
spe@@ 7871
operator 5090
ampagne 24237
books 2241
irrit@@ 12589
off@@ 4627
witness 5108
CAMP@@ 26625
ssing 11675
fundamentally 10525
' 73
nowadays 6756
boutique 12611
Ulrich 18058
CLUS@@ 27744
假 34172
welches 29789
Teil 28122
produ@@ 20678
obli@@ 15177
태 32821
forwarded 14856
techni@@ 12579
Angola 16788
could 197
stak@@ 25706
Jesus 1491
ña 16220
波@@ 31948
length 1933
ratification 9075
Reb@@ 28192
arel 20218
ño 19872
堂 32822
Roo@@ 16392
scene 3108
tot@@ 17197
宏 32823
damit 27987
scent 11439
eship 14270
Iran 2236
wör@@ 29754
Eastern 2619
festival 3695
techn@@ 23596
las@@ 4955
Wild@@ 15820
Iraq 2131
interests 1401
enforcement 4979
even@@ 12044
stomach 10767
gence 11831
Roosevelt 19764
gency 18339
kr@@ 23482
律@@ 30898
Golf@@ 25403
Barro@@ 27218
WH@@ 16143
ý 20075
Sof@@ 26871
false 5262
Pass@@ 23122
tonight 7891
nö@@ 28867
atic 4633
atie 18979
dishes 3897
atik 28107
atin 17815
爱 30979
atis 22664
PR@@ 5454
ģ@@ 30153
Pe@@ 4031
sidency 21995
worldwide 1911
teria 28296
terie 26705
SLR 22390
ѕ 30672
Mode 19833
servatives 13986
Reserve 8391
so-called 2696
placement 10298
ventive 14185
bres 26075
stehen 27745
Trichet 24615
札 32824
arib@@ 27535
Goo@@ 16866
jap@@ 20506
А 29992
greenhouse 6653
gg@@ 7154
ರ 32825
jar 18871
Update 11003
terminal 6540
entities 8800
jam 16783
tape 7523
jak 24983
II-@@ 25785
riding 5484
jad 17237
tude 11711
Scho@@ 12332
凍@@ 31949
pel@@ 10256
kab@@ 25429
produc@@ 12350
Rating 18476
comprising 12181
taxes 3206
stuff 5032
价 31751
straight@@ 27676
taxed 20923
keinen 29493
ael 17050
제@@ 31950
Ps 12747
kund@@ 27911
prises 26648
frame 4016
Joachim 21441
Adoption 28569
wp-content 1374
consi@@ 12570
prised 28142
PR 11179
PS 7406
PP 15974
destiny 14087
PT 8205
compar@@ 14012
nuclear 1747
Individu@@ 24086
PC 1634
PA 7412
PG 17794
PD 15112
PE 13068
Cus@@ 21295
PI 17992
PN 21092
PO 16938
PL 8123
PM 168
üb@@ 27402
ト 30300
mind@@ 14043
勞@@ 32827
ã@@ 15621
ameri@@ 16477
resem@@ 9701
P. 10248
Sorrento 22242
gleichen 29784
award-winning 14820
conclude 5096
ка@@ 21510
team@@ 13473
原 31521
gang@@ 20628
ो@@ 31522
Tok@@ 21309
Yu@@ 9056
parag@@ 16429
rus@@ 8455
sch-@@ 26371
genetic 6977
축@@ 34173
> 347
Alex@@ 16221
zeit@@ 22772
coherence 11919
狭@@ 32828
eut 23036
Hostels 25993
Zap@@ 18685
edel@@ 26923
Andro@@ 24998
fut@@ 10326
Number 4831
确 34174
OECD 8477
mom@@ 20333
abotage 20099
Ш@@ 29928
ď@@ 29860
讲@@ 34175
〉 34176
boo@@ 6649
го@@ 25669
ે@@ 32829
Guaran@@ 25786
denial 14872
veran@@ 26095
Dun@@ 6772
thu@@ 17902
相@@ 30496
r.@@ 16540
火@@ 31951
complemented 16448
preci@@ 23890
よ@@ 29996
ebo@@ 5853
view@@ 9496
identity 3411
diabetes 9935
audit 7836
39.@@ 8220
off 400
Expl@@ 22605
phan 16384
PRO@@ 10760
Scro@@ 25211
oft 23467
administered 14245
太@@ 30407
diversify 21744
audio 4325
newest 9869
funk@@ 27858
REG@@ 26805
ме@@ 24743
Jab@@ 21996
Ri@@ 2023
stati@@ 10834
य 31952
web 1301
weg 21376
wed 3526
wei 22679
wen 13124
wel 8767
wer 6754
neoliberal 19849
籍@@ 32830
wet 8777
practise 15639
tics 2892
pied 25341
Head@@ 13499
Kat@@ 8491
tice 23123
gambling 10590
tick 15596
dures 24511
you 26
ミ 32831
tico 15202
Kä@@ 27752
ra@@ 584
Č@@ 18343
Micro@@ 11206
EU-15 26276
become 472
Universi@@ 13640
氷@@ 31523
 26784
ERG@@ 25847
chin@@ 19398
ern@@ 3787
recognition 3211
contested 14784
Sloven@@ 22355
爾@@ 32832
飛@@ 31524
passion 5648
Tibet@@ 21737
牺@@ 34177
biology 12731
Bugtraq 23024
pressure 1478
损@@ 34178
修@@ 31407
lifestyle 7362
tiglione 25856
VON 29908
langes 28948
langer 29121
langen 25508
ło@@ 27319
tioners 21442
騜@@ 32833
documentary 7921
VOY 24656
swimming 2004
ﬁ 30337
letters 4717
Schreyer 24329
trag@@ 28233
gastronomy 17102
cultivated 13568
弃@@ 34179
超@@ 30769
Spam@@ 28375
Brand@@ 16049
terminated 17067
s.r.@@ 25353
peac@@ 14828
Dr@@ 22223
pairing 17178
ppen@@ 25254
ึ 30899
ketball 26145
Contract 21646
ス 30588
站 30204
fragmentation 18186
places 1313
excitement 11253
placed 1982
де@@ 24812
უ@@ 30673
boar@@ 16994
Executive 4209
隆 31953
nurses 15715
示@@ 30980
arro@@ 17170
thermo@@ 19815
☑ 32834
Château 23866
Öster@@ 28937
聊@@ 32835
Darwin 19280
compared 1793
nonetheless 6177
deadly 11515
sual 17710
7,5 22042
lately 16741
details 1316
FISCH@@ 28813
behold 6377
ø@@ 13241
illusion 14073
February 620
repeat 5159
zhou 18112
Your@@ 23458
outlets 13024
虑 34180
U 2381
寸 31954
ッ@@ 29951
multinationals 18267
repeal 20458
DF@@ 10874
exposure 5483
searches 12139
正 34181
Corps 15976
insec@@ 11676
ｕ@@ 32836
concer@@ 17951
compete 6033
擇@@ 34182
gardens 4939
magnetic 8797
ˈ@@ 29843
Kensington 20622
Ř 30770
test@@ 23172
integrity 6843
europa@@ 28497
蓋@@ 31235
Agu@@ 20170
unanimity 15250
GTZ 25431
嫌@@ 32837
neighbours 7536
Marg@@ 25685
worth 1889
unde@@ 27614
Sex@@ 18013
珍 32838
郡 32839
˗ 34183
Military 13541
250@@ 14612
Quell@@ 28631
罪 31955
Ancona 24685
脚@@ 32840
abolishing 21705
artist 2741
mp3 22649
浅@@ 34184
mend@@ 24924
邮@@ 31956
machines 2863
büro 29494
排@@ 31752
filtration 18573
óni@@ 27988
Geb@@ 14627
د 29606
Game 6075
profession@@ 21171
Honor@@ 23954
projec@@ 10980
ès 10169
equals 19545
嗎 34185
th@@ 799
tain@@ 9794
protection 648
也 31236
obtained 3841
Vil@@ 9917
終@@ 31753
ier@@ 11099
stressed 5530
YST@@ 26852
postponed 13151
INTER@@ 19859
Hormon@@ 29331
Bank@@ 22962
bro 21639
archaeological 11531
flo@@ 3068
bre 7794
bra 14504
plot 8047
љ@@ 31525
coins 9142
uniqu@@ 16481
trin@@ 16572
separated 7302
Franc@@ 13900
Chianti 17856
流@@ 30900
hist@@ 13705
backwards 16008
separates 21717
yard 5795
blocking 10906
Ruhr@@ 26100
1991 4496
1990 3756
1993 4060
1992 3910
1995 3274
1994 3621
1997 2797
ers 390
1999 1919
1998 2424
ery 3315
zel@@ 12689
ere 6166
Initiative 9385
era 2604
再@@ 31408
portu@@ 27202
Günter 21685
ern 7886
ero 6887
eri 14544
ON@@ 6768
Abe 21347
indicated 4169
★ 28754
Informatik 28970
indicates 7201
f-@@ 10125
Abu 8690
recovery 2927
carriers 9472
provide 440
ず@@ 31038
ī 29234
nuts 10675
Pizz@@ 27021
resignation 12726
Blei@@ 27470
deser@@ 10093
customs 4448
baren 29466
Reser@@ 16157
...... 18896
appreciate 4553
fa@@ 4175
Delegation 21052
vere 22875
Akti@@ 28326
minded 10336
Guest 5793
cont@@ 9765
賈@@ 32841
intimi@@ 18393
innovative 2035
anne@@ 16183
Bands 29467
trages 29075
orum 15572
production 480
AX@@ 24776
AM@@ 4390
β@@ 28285
coffee 2224
ł 26559
耳@@ 32468
么 31144
safe 1648
ös@@ 23400
Motion 19736
Stol@@ 23710
penetration 18488
lifelong 12548
Ace@@ 29033
reasonably 10751
Ho@@ 2247
l 364
smu@@ 16260
क@@ 31317
reasonable 3601
熟@@ 31754
dings 9875
Phare 26497
Quark@@ 28823
Hr@@ 26394
dumping 12518
Maes 26859
‗ 34186
Ζ 32469
Tayl@@ 28387
gemeinsam 29768
Gale@@ 26535
Type 15948
weiter@@ 25889
trainers 16975
알@@ 32842
Monnet 24737
Orchest@@ 25857
Subsidi@@ 28933
avi@@ 7813
disputed 12292
barrier 9880
Salzburg 7402
Þ@@ 27615
ary-@@ 14373
disputes 7936
phon@@ 21043
disk@@ 27477
adjour@@ 28667
emph@@ 24108
certified 6560
refugee 8760
renew 13944
核@@ 31957
Amendments 10060
钦 32843
render 13406
synonymous 19608
蔬@@ 34187
another 373
Manfred 22867
electronic 2507
illustrate 13748
2050 14567
self-regulation 23417
symmet@@ 21297
ingen 7924
approximately 2232
inger 5822
PAG@@ 28289
dogs 4516
uv@@ 25894
IONS 19127
cereal 18448
wasted 14823
ess@@ 5204
Backup 27320
掻@@ 31958
emi@@ 7962
genau@@ 28868
Nr. 22512
Haf@@ 22620
pre-accession 17893
historical 1897
Expor@@ 28146
油@@ 31959
respecting 10287
portraits 15788
心 30497
Blü@@ 29538
Maestro 23705
contents 3413
convenient 4312
subjects 4918
cour@@ 7180
Gallery 7289
Qs 23833
nobody 4898
North-@@ 21527
Button 24206
postpon@@ 23757
assesses 23242
stration 26208
Luca 22716
Table 15292
assessed 8706
grave 7651
enshrined 15804
勿@@ 32844
Mid@@ 7892
ὕ@@ 34188
reserve 3776
ECON@@ 26221
 32470
练@@ 32471
Hand@@ 12821
dump@@ 18059
Ê@@ 26104
intergovernmental 14103
失 34189
Santiago 11131
Für@@ 25630
scandal@@ 29638
rupt@@ 28193
depreci@@ 26402
Edel@@ 24860
degradation 16826
Fri@@ 6367
policymakers 13554
保 32845
Ů@@ 30771
eme 19695
runs 2973
ema 13238
ủ 31960
螨@@ 32846
थ@@ 33707
Agent 20800
rund 29272
ems 6578
displac@@ 26507
痣@@ 34190
emy 12360
stir@@ 13850
secretary 6970
pur@@ 4820
oll@@ 14878
Jackson 6974
edited 6537
ehn@@ 27876
discussions 2813
rat@@ 7828
Malawi 22565
techniques 4417
erer 23684
eres 18352
날@@ 30981
draws 9082
FEMIP 23701
CB@@ 12877
erez 23702
away 429
೨@@ 32847
epide@@ 23579
ered 5435
ernal 17205
drawn 3047
previous 1078
eren 12948
sec@@ 4082
diese 23714
MOs 28755
handful 12351
hir@@ 22957
ˌ 32848
righ@@ 6182
Sever@@ 22208
體 31961
travellers 7441
ř 29363
autor@@ 24758
rapporteur 1592
kitchen 1710
climate 1142
確@@ 34191
Nam@@ 20376
mer@@ 3138
tackl@@ 22488
hab 18358
beautiful 795
tone 7012
tons 3857
Ireland 2201
telecommunications 7442
arch@@ 5102
gratitude 11915
戒@@ 31962
stitute 23324
本 30982
cz@@ 14918
EUROSTAT 25420
Belize 21898
宿 32849
役@@ 32472
Spiegel 24823
attacked 7244
辞@@ 32473
ｻ@@ 32850
Mat@@ 5116
Dialog 26906
Pla@@ 8725
Heinz 19963
tioning 14235
reciprocal 19176
vage 22791
gna 20499
gne 10938
öl@@ 18268
gno 23375
Pre@@ 1946
attra@@ 29045
cylinder 15778
cons 17657
COR@@ 20840
appartement 25848
Fis@@ 7257
Athens 7930
cona 27249
tissue 8902
cone 14496
conf 23620
Convention 2128
sl@@ 8651
島@@ 31237
sq@@ 13785
悩@@ 32851
kunst 28987
Spezi@@ 23483
liv@@ 13743
bureau@@ 20514
wheel 6199
со@@ 26087
hang 8312
counterparts 13388
hand 549
liberties 17255
ban@@ 3099
Grun@@ 27460
felder 28915
whereby 7918
isi@@ 12121
Parma 23487
oning 8034
client 2743
tabling 21348
musical 4150
uniquely 17972
traditions 5349
fen@@ 9833
redi@@ 25898
Cambodia 13969
casu@@ 12719
Lorenzo 18730
thanks 1106
車@@ 30983
electronically 17884
antes 16899
映@@ 32852
EGNOS 27143
Us@@ 26439
reg@@ 6777
57@@ 5100
者@@ 30616
nächsten 29692
lic@@ 4707
usable 14032
Restaurant 7337
ハ 31526
s-@@ 1948
Sozial@@ 27407
designers 7365
am-@@ 11381
Wind 12206
Wine 15865
惯 32853
night 633
essor 23000
Tie@@ 24952
Commission 118
Italia 16292
borg 20144
民@@ 30551
间 30520
confusing 16516
congratulate 4013
ﻙ@@ 31963
hren 28794
Phi@@ 10524
訳 32854
asking 3464
participation 2365
Graz 15873
Aer@@ 19132
Glu@@ 27022
architectural 6776
substitution 21298
peer 14881
Grab 28971
observ@@ 22369
Grad 28641
Graf 25584
♫ 30716
worth@@ 21920
step@@ 13905
ʀ@@ 31964
Palla@@ 24238
Abdullah 18095
profession 8858
rendering 15786
會@@ 32855
05.@@ 1787
贮@@ 34192
潢@@ 31965
Müller 17404
sovereign 8059
payment 1651
Englisch 28860
conservation 6283
Donal@@ 24046
Danu@@ 27722
Austri@@ 19656
Ern@@ 23251
ob 22356
diligence 17830
referendums 21439
gal@@ 5948
☺ 30352
reproductive 14821
maximum 1731
gemacht 29278
视@@ 31238
arma@@ 22177
ﻁ 31966
er@@ 463
З 31239
15-@@ 4435
Sch@@ 3390
expertise 3396
prayer 5008
 30353
1,000 4791
Inclu@@ 16853
fasc@@ 9907
far@@ 7220
tese 29208
派@@ 31967
Falls 17907
COMP@@ 20208
tesy 28799
Thur@@ 18096
test 1310
ょ@@ 31409
quot@@ 21362
tu@@ 1752
Transl@@ 25941
update 2110
occasion 3679
later@@ 24122
Victori@@ 27708
仮@@ 31968
ل@@ 23561
normally 4190
ˮ 32856
beds 1900
depl@@ 23028
服@@ 31410
Keller 23459
songs 4142
tribunals 23983
concept 1908
Assem@@ 25832
diplomacy 12839
【 29830
supplement 8959
Republic 1325
sor@@ 6052
battle 3492
fortun@@ 17297
polluted 20523
Münchner 29710
layers 9397
Fernseh@@ 29319
Burg 25699
ˌ@@ 30301
enor@@ 26409
ֿ@@ 30552
Temper@@ 23891
aland 26029
tments 25654
Ἀ@@ 31755
polluter 23645
❤ 30773
asso@@ 26453
gua 21812
gue 4375
ós 26657
turns 4382
ów 19594
gun 6185
gus 16399
gur 25230
Tulip 24591
ón 8861
gut 16076
Str@@ 10171
guy 6360
tene@@ 28998
Gior@@ 25593
ổ@@ 31039
八@@ 30486
cose 17795
gef@@ 26880
赖@@ 32857
ship@@ 13505
park@@ 19609
urs@@ 25138
inde@@ 1756
cost 998
Wan@@ 20171
Wy@@ 15315
CMS 19027
iors 19948
cosy 5766
Eurojust 21683
Form 16804
enstraße 28476
荷@@ 32858
shares 2594
Ford 7340
성 32859
shared 2776
Fort 11446
偏@@ 32860
feld@@ 26530
English 872
Custom@@ 21243
Distribution 22069
teaches 13766
teacher 4754
Counter@@ 22901
sending 4020
Portugal 3070
Pres@@ 18558
転@@ 34193
矿@@ 34194
sour@@ 11017
domains 15035
430 14957
Commun@@ 20172
regardless 4654
cien 28063
ctions 15699
extra 1935
Anne@@ 24127
gefunden 29624
原@@ 30553
Lat@@ 10211
cies 10177
业 34195
恋@@ 32474
klo@@ 28234
± 19219
ἰ@@ 31240
Comm@@ 8305
Σ@@ 28350
鈴 32861
ë@@ 9891
WM@@ 24089
芦@@ 32862
lea@@ 9804
repar@@ 23235
acon 15291
holo@@ 18494
regularly 3823
ERP 20309
ummer 28158
ERS 18866
Љ 30193
chip 10042
set-@@ 23243
chio 17660
ERC 26036
In@@ 1327
ERN 27287
chia 20377
occur 4229
Pizza 24768
pret@@ 24435
Christi@@ 12488
discussion 1985
spreads 15896
Is@@ 7492
lounge 4441
Gent@@ 26684
Schir@@ 28365
economy 780
armies 15815
product 516
tel 5306
P.@@ 12484
括@@ 31969
produce 1893
Martin 3541
Publish@@ 26410
drastic 15663
Model 15539
Modem 29485
Dieter 19509
duc@@ 6057
染@@ 31756
玩@@ 31970
Radio 7599
approx 5404
serving 4143
Hall@@ 21821
Use 11727
Jan 1558
brain 4461
技@@ 31411
disparities 16677
api@@ 15789
Qui@@ 16356
onien 28934
Bolivia 15729
Mandela 16873
RT 21194
 30846
RS 19776
候@@ 31971
Privat@@ 28091
RD 16959
RE 19486
RF 22174
spacious 2818
RC 12712
RM 23045
RO 9084
與@@ 32863
RI 13134
Satur@@ 11993
correspondence 15039
nom 22501
non 7087
macro-economic 21558
plain@@ 13628
alist 7260
IZ@@ 20469
introduce 3648
alism 3626
wealthy 10262
not 33
R. 7691
now 100
alise 9840
nor 1589
nos 17007
工 34196
spielen 28699
drop 3788
desde 26340
dron 22124
drom 29515
Agricultural 14854
10-minute 11281
七 32864
prompted 9763
challenged 10515
Museum 2186
۹@@ 31972
Legal 7648
challenges 1857
year 134
naming 18655
사@@ 31527
monitors 12940
ோ@@ 31973
唯@@ 34197
ron@@ 3690
furthermore 2129
Norwegian 9977
wholeheartedly 18600
fy 4267
Tarifa 16128
im@@ 714
证@@ 31412
diagnostic 12536
Yen 28426
琢 32865
advantages 3465
ir@@ 2474
Europe@@ 22198
ቶ@@ 31528
on-@@ 2661
transition 4045
Harbour 12189
br@@ 3593
ro-@@ 18378
Erik 21892
invitation 6972
Guarantee 17867
Eric 9755
blind 6979
较 32866
bling 10144
南 31040
simi@@ 21102
Flick@@ 23800
Tec@@ 23244
Syria 3370
Medicine 10359
释@@ 32867
ring 3215
rina 16314
tomorrow 2693
caught 4647
Lieutenant 20187
Von@@ 22859
Response 22348
ʲ@@ 31241
yu@@ 12557
BN@@ 16833
schi@@ 15000
bajo 26779
Poker@@ 20462
appreciated 8187
png 7870
Alm@@ 23491
professionals 4378
annul@@ 23147
transferred 4976
text@@ 17596
Pyrami@@ 27983
overnight 6369
Heal@@ 14658
APPROVED 21372
Jet@@ 23236
jac@@ 14738
equipment 1273
awaits 14307
authorising 22680
Off 19974
Package 18121
attractiveness 19636
წ@@ 32868
teach@@ 26806
importantly 8108
Break@@ 20566
Pak@@ 22797
bot@@ 19470
reform 1616
steady 8765
Module 22878
boy@@ 8485
Web 2943
mits 11861
Weg 28235
colum@@ 20897
scoreboard 22412
eron 26222
spyware 19129
discovered 3257
sibly 13650
浴@@ 32869
perfekt 29758
壊@@ 31974
Westpha@@ 17576
TA@@ 15351
snack 11611
se-@@ 7046
enriched 15754
stain 24597
Luther 19281
zeigen 29273
agentur 29509
ǐ 31424
SCH@@ 14886
stroll 9420
Costasur 25065
巡@@ 32870
Intellectual 21292
ambling 26662
ɴ 32871
21.@@ 4330
剔@@ 32475
Salz@@ 18779
EMA 21259
burst 13062
Tamp@@ 18164
EMI 22398
kop@@ 20733
EMU 12525
Palestini@@ 28600
actively 4565
EMS 20297
ƞ 34198
suspects 12103
colours 4651
Lithu@@ 28019
Members 1830
import 5474
хо@@ 27029
therapies 16003
deliver 2877
读@@ 31757
Tu@@ 5157
Team 6069
Werk 28809
MI@@ 17486
Foo@@ 17048
cor@@ 2328
MF@@ 25309
sper@@ 11832
Malaysia 8686
Unicode 25558
Tutorial 28668
Handy@@ 29103
cuando 26964
Sachs 18035
exploit 10049
amine 19590
aming 7142
perpetrators 16068
stically 16630
moderne 28756
tropical 6845
159 12306
Recon@@ 23429
dictator 16550
158 14571
Dolomiti 24624
Vall@@ 18113
況 32872
Ǻ@@ 34199
dr@@ 4086
admi@@ 12166
Telekom 21143
suspected 7985
Vincent 14359
skiers 16703
n@@ 608
line-@@ 14847
術@@ 31975
忆@@ 34200
schau 25310
LEI@@ 27594
1998-@@ 22836
Anth@@ 27359
GNP 22142
Ravenna 23092
GNU 9883
SON@@ 23939
FS@@ 18184
Better 19433
waterway 22129
Israel 1154
Ả 32873
develop 1332
次@@ 30617
塌@@ 34201
inquiry 6636
möglich 28509
k@@ 432
foam 15833
a-squared 26621
d-looking 25159
œ@@ 25284
letin 17739
Track 19983
kri@@ 23926
hier@@ 16144
SDL 15654
白 31413
loy@@ 15147
SDK 25022
taxi 6286
-B4-0@@ 23685
livestock 11957
Service 2237
∈ 31976
foot 2603
relevant 1675
maternity 17823
Agro@@ 26215
sal@@ 2238
death 1040
euros 3312
forward-looking 9852
ረ 32874
Solana 16658
Spot 25053
tless 14861
-of-the-@@ 20916
versa 14910
Deleg@@ 28764
熱@@ 32875
disproportionate 16577
ami 12256
幹@@ 31529
laundering 14417
amo 18043
ama 6113
ame 6144
pse 16908
amy 15554
濟@@ 31242
amp 1019
ams 6252
amt 21093
ß 19308
fortune 11227
Colum@@ 23512
annually 8039
Fei@@ 26003
output 3965
noti@@ 20381
twelve 6761
verbal 17859
exposed 5277
tragedies 21226
search@@ 10081
E 1812
appe@@ 9424
od@@ 4149
enzen 27299
assembly 4808
sixth 7613
Busquin 25441
privat@@ 25636
Goth@@ 26014
Gardena 18654
Leonardo 13500
rak@@ 24152
ideology 11454
Tet@@ 24084
backup 10173
Intergovernmental 10380
outlook 8587
Romanti@@ 23332
leck@@ 29458
W@@ 320
卦@@ 32876
stabilisation 17483
intervention 3801
鼠 34202
technolog@@ 24419
discover@@ 26658
qualifying 11816
mit@@ 5140
stark 18960
珈@@ 32877
start 576
Check-In 20882
stars 3484
要 31243
OF@@ 16879
拉 34203
Os@@ 9695
zei@@ 19013
know-how 6930
热@@ 30901
two-thirds 13434
proposal 688
fraud 4425
embedded 9455
default 3812
Belarusian 21519
tiv@@ 8168
歇@@ 34204
ก 30268
600 2467
FER@@ 21355
ho@@ 1309
currencies 9660
Ferdinand 19758
hr@@ 5637
ļ@@ 29854
Liecht@@ 29564
零@@ 34205
Annex 8814
Smi@@ 23844
Erk@@ 28264
forcing 10639
poor 1848
Minsk 20783
さ 32878
registry 16616
ohn 26488
马@@ 30382
pool 1170
紙@@ 31758
Kultur@@ 23715
Rübig 26037
ghters 8191
overseas 8129
AU@@ 11042
month 969
ceased 16597
Volu@@ 18608
religious 2396
Montene@@ 27952
Equi@@ 25514
Clas@@ 21127
pledged 12968
Rit@@ 15999
才@@ 31759
sustain 12124
Lok@@ 24854
pledges 20000
Dir@@ 23656
20.000 25916
horror 12365
窗@@ 32879
coloured 12039
decide 2191
expendi@@ 29881
anas 23208
૧ 32880
dden@@ 24377
Canary 6901
reaffir@@ 25754
anal 20398
Mail@@ 20500
aster@@ 20537
GUE 18469
diment 17785
GUI 22468
streets 2894
ators 2167
atory 5623
ar@@ 624
ails 12273
Korea 3155
Patient 26970
Releases 24625
34.1.1 28728
investing 7594
ק@@ 30122
ast 3054
learned 3987
except 3024
฿ 31530
éné@@ 23973
З@@ 29673
Produkte 28332
晏 31977
პ@@ 32881
tracks 5617
uneven 20989
带@@ 32882
utz@@ 17555
excess 7504
subscri@@ 10956
arena 9943
Biom@@ 25262
conviction 8204
inspired 4668
losses 4337
Messe@@ 28454
问 31978
advertising 3100
Nev@@ 26105
Ḫ@@ 32883
legen@@ 17647
Joan 17975
puy 29674
ase 4827
ン@@ 29919
requiring 8443
S1 24207
縊 34206
coff@@ 10965
put 398
qu@@ 1255
S. 4872
Gas@@ 15128
ate-General 29864
个 34207
card@@ 13980
地@@ 30123
라@@ 31979
Hör@@ 27478
lowering 14193
instruc@@ 15676
키@@ 32884
dion 20598
St 4447
Them@@ 24136
Banking 14622
So 5904
7000 22262
Sa 12083
producing 4090
nar 25410
Browser 23961
grill 16349
Kolo@@ 27706
SS 11358
oversight 15603
SP 15620
SV 13314
ST 14743
SK 15414
SI 15352
SO 20103
budgets 7369
SM 21748
SL 15388
SC 12663
SB 23448
SA 4245
SG 22660
SF 14379
SE 6068
SD 14810
pri@@ 2194
阅 34208
IBM 12526
机@@ 30464
Sn@@ 16842
Tall@@ 27933
phrase 6519
arti@@ 5691
barri@@ 16941
movi@@ 20428
媒@@ 34209
响@@ 32885
Fall 18516
vigilance 22734
assimil@@ 18890
డ 32886
Lower 12532
communicating 14513
態 32476
众@@ 34210
Emirates 10792
Rese@@ 27390
ブ 31980
productivity 5095
horizontal 9144
stein@@ 23782
compulsory 7980
Mexico 2858
SG@@ 23404
mobilise 18771
anytime 15259
ö 19581
州@@ 30774
Marathon 12800
sha@@ 2905
款@@ 31145
thermal 5292
ules 11006
Atlas 20524
systeme 28064
His@@ 15264
ศ 31981
atility 20914
territorial 7528
systems 647
founders 15100
evening 1754
病 31982
müssen 29246
Oro@@ 23534
cel 25149
ces 1938
cer 8451
permissible 17912
opini@@ 27292
～ 30111
慢 34211
faire 21070
fairs 11247
成@@ 30269
Flash@@ 26817
SAVE 26865
heavy 3082
LO@@ 6978
sition 25509
语 30247
č 19773
Andal@@ 27863
gically 11844
Lu@@ 2504
尼@@ 34212
vil@@ 7665
Ey@@ 22281
Chávez 21627
Mas@@ 6215
Domini@@ 10647
Tag 23554
safety 864
offre 27984
7 61
哪@@ 31983
Town 4625
mei@@ 16598
housed 12357
背 32887
houses 2133
upper@@ 17228
Priv@@ 25391
phy@@ 15027
speculation 9559
oli@@ 3389
͡ 31531
unresolved 18784
formular 29476
Boston 6307
Georgi@@ 24657
Accession 19362
Brok 19777
Passi@@ 28604
velop 27868
inno@@ 16789
Cast@@ 13005
주 32888
대 32889
Handel 26157
inter-@@ 10408
Alhambra 25074
若@@ 31760
IS-@@ 26153
및@@ 31146
visions 13756
ecommerce 19560
Jugend@@ 27424
horse 4652
并@@ 30717
Klar@@ 27772
Olympus 17659
station 1238
hindered 20490
hundred 3693
Tauf@@ 28548
trapped 13442
1919 15995
1918 14170
烟@@ 34213
EM@@ 6143
1911 19296
1910 18082
1913 18713
1912 18256
1914 15505
1917 14360
poor@@ 28180
grew 4640
state-owned 17882
ロ 34214
grey 8616
nevertheless 2632
cr@@ 4636
toward 3216
tri@@ 1555
procedural 10422
in- 27637
lik@@ 8353
SAR@@ 24882
Window 23325
另@@ 31244
ొ@@ 32890
null 9053
organs 9262
單@@ 34215
gnition 18014
Price 6393
cave 10090
red-@@ 16022
past@@ 8488
五@@ 30270
arkt 28723
ት 32891
preneur 15548
arks 11517
aired 10409
Bau@@ 8748
multilingual 13866
port-@@ 20055
Chief 5325
hired 10373
aires 15703
り@@ 30205
astery 19682
Viewer 25545
27.@@ 4367
part-time 14718
astern 16261
physics 10061
phenomenon 5999
Erfolg 29711
AGES 25016
wehr 26537
説 32892
resol@@ 23144
Fin@@ 5672
jung@@ 24885
translation 3090
Rez@@ 27300
Р 29981
患 32477
Fic@@ 25290
justice 2493
French 941
sym@@ 12407
ques 7396
quer 15583
房@@ 30902
quet 9646
quez 20723
呀 32893
ເ@@ 32894
utting 19348
us@@ 1755
feels 5718
competing 9430
combinations 12352
≤ 29966
vings 18470
天@@ 30061
stored 4061
dur 25400
Franco 18682
prim@@ 13443
France 760
culture 1253
5-00@@ 25766
catastro@@ 22120
Equality 18001
n-@@ 10724
fications 9655
locals 9610
挥 34216
acknowled@@ 24314
pictures 2108
opped 10860
Realty 19755
tolle 29213
Job@@ 24629
私@@ 30589
order@@ 22214
stagnation 19561
jeden 29174
旦@@ 32895
missing 3572
wai@@ 15661
spray 15093
ranked 10069
jeder 29034
座@@ 32896
turbin@@ 13114
asser@@ 8296
77@@ 5297
३ 32897
minorities 6471
Steve 7234
Hamp@@ 10783
assem@@ 11239
forgotten 6530
詰@@ 32898
Territ@@ 15979
experimental 9680
枝@@ 34217
address 912
solvency 23547
ქ@@ 31041
gro@@ 3153
Signal 27190
mentation 7819
Protection 4760
Portal 19095
threaten 11780
Gott 21159
alongside 4832
EST@@ 16269
ny@@ 12528
lives 1360
liver 10933
BAL@@ 25216
pact 11336
载@@ 34218
ро@@ 20466
08@@ 5712
Brad@@ 12281
peti@@ 17281
Treuhand@@ 30011
Maus@@ 28071
pace 5040
kara 27453
smart 4911
leys 24338
guide 2913
pack 5980
Qatar 12678
costly 10149
dol@@ 4967
www.eib.org 8585
減@@ 31532
communal 14186
sump@@ 21495
grant 3736
Verheugen 17386
MW 14101
grand 6406
gr@@ 3320
composition 5556
Mauritania 21464
ratings 6890
Frei@@ 18348
001 14654
000 1470
gü@@ 27129
Users 21706
Fan@@ 14261
obviously 3158
Archiv 28705
influx 18161
consistency 8821
ባ@@ 31533
speculative 18587
Fas@@ 19434
Living 15819
empowered 21462
骏@@ 34219
almente 26626
settlements 10419
technicians 14056
reviewed 8242
will@@ 11811
Reconstruction 22408
却@@ 31761
皮 32899
哑@@ 34220
Gum@@ 25972
Tul@@ 20701
informal 7803
dies@@ 21405
questioned 9783
Commodore 19329
Berkeley 19778
wy@@ 12784
戸 34221
do-@@ 15167
ú@@ 9434
showing 3207
በ@@ 30775
success 1074
ồ@@ 30903
Heim@@ 28148
样@@ 30718
ees 8766
eel 21153
een 13810
anony@@ 9034
popular 1367
eed 21876
terminology 16935
ermo 27569
令@@ 32478
Zah@@ 22059
contradic@@ 13462
lips 9548
economic 325
Laos 20445
mor@@ 3126
AMA 22382
模@@ 30847
bonne 24146
competitions 10327
з 21201
97@@ 4548
宇@@ 32900
Bild 25245
忆 34222
Economics 10037
assists 15406
敏 31042
黒@@ 31984
Taylor 9381
Kell@@ 27085
昨@@ 34223
во@@ 21436
ure@@ 10295
Ǻ 32901
silence 6651
！ 30674
銀@@ 32902
傅 34224
繁@@ 34225
警@@ 31985
疗 32903
怒@@ 32479
Norman 16681
Cancun 22273
placing 7199
Ｐ 32904
visas 12387
ፍ@@ 32905
Koch 21266
ʹ 32480
野@@ 31414
swi@@ 5686
ps@@ 19591
ɡ 32906
withholding 22172
MEMO 14029
tober 26971
Albufeira 25173
BS@@ 9046
務 32907
injection 10795
Lay@@ 26473
Tune@@ 29066
Nord-@@ 27102
Laf@@ 21511
ypal 22635
politik 27257
gious 20924
similar 1383
后@@ 30338
assassin@@ 19015
ordered 3978
interventions 9815
accessibility 12439
Aviv 17223
To 5155
Edward 11623
dding 9913
ј@@ 30154
礼@@ 31534
acceler@@ 16915
渝@@ 31987
TV 865
TT 22837
TU 21212
fears 6256
TS 8862
TP 17966
application 811
TM 13511
TH 22697
TI 21863
department 3061
TD 21083
TE 8869
TB 18432
TC 19064
TA 9787
Customer 7623
happens 3402
23@@ 851
wohl 27608
T. 8975
graphically 24658
jed@@ 27095
看@@ 30168
e 335
附@@ 34226
Hennon 28306
resolving 13181
orbit 14887
utilised 21596
Per@@ 2950
輪@@ 32908
opp@@ 7780
ﬂ 31043
‐ 29388
fol@@ 4834
外 32481
two@@ 10753
compact 6278
denom@@ 15874
100@@ 2307
resettlement 21866
tener 24981
Not 10424
Nov 1932
Now 5872
ν 27360
friendly 1561
Nos 9264
chts@@ 24254
shar@@ 9501
line@@ 12809
wave 5383
Bü@@ 24047
短@@ 34227
telling 5290
yourselves 10745
denomin@@ 21619
ey-@@ 19330
positions 2801
standard@@ 27326
prolon@@ 22714
enforce 11415
Index 11800
vas@@ 22648
jump 6554
Camera 22520
notwithstanding 16145
Mod@@ 18428
pper@@ 20217
交 31245
neighbour@@ 18699
bü@@ 26187
legisl@@ 21989
einige 28817
Ambi@@ 26091
stru@@ 12023
密@@ 31415
wra@@ 7044
bi@@ 1298
黄 32909
detached 13254
convert 8183
à@@ 7624
genz 26931
落@@ 30719
Palace 4676
Côte 16280
gent 5645
gens 14020
Bach 16000
散@@ 32482
Arti@@ 11028
gene 10369
Diet@@ 19046
patents 8132
gena 23883
Voc@@ 20079
foresee 21524
airspace 18225
Doctor 15643
풉 34228
Assistance 17367
manage 3112
gut@@ 21796
atedly 26425
第 30142
camera 2764
Bou@@ 10610
historically 11015
Wellness@@ 28549
formally 8483
Markus 17322
advis@@ 5905
visibility 10706
charming 4524
惑 34229
defici@@ 14164
appointed 3608
boards 5331
poin@@ 9202
recession 6028
itar 23716
business-@@ 20001
VIII 16682
servants 7252
Aceh 25958
meet 925
-Bar 29111
meer 23527
votre 24893
Israeli 3602
links 1914
Osse@@ 18878
PayPal 17028
ッ 32910
Nou@@ 16949
Mr. 1484
pulling 13066
sought 4520
defective 17930
picturesque 6812
empfehlen 29750
sentiments 21532
fare 6408
farm 3101
ires 16968
Mrs 1232
Burg@@ 20303
Roman 3803
tland 15891
ired 22709
famous 1292
Guard 13226
Arrangements 29344
fill@@ 14153
芝@@ 32911
ms@@ 15816
including 329
gion 20738
pol@@ 3838
63@@ 8370
Distri@@ 27437
impres@@ 15197
asi@@ 6771
thank@@ 14459
ب 29874
RAL 23145
RAM 14305
Ì@@ 27339
RAW 23747
RAT 29527
ser@@ 3122
Seri@@ 24531
游 34231
Avail@@ 21599
functional 4874
ffle 17216
Œ 31535
forbi@@ 23157
Venus 18443
ぜ 32912
ี@@ 30036
kilometres 5420
Layer 23331
withdraw@@ 24090
peop@@ 19802
university 3353
strin@@ 28605
slide 8945
В 28729
agonal 21997
Deposi@@ 25737
| 1392
prevailing 13435
布 32913
ener@@ 17382
constitute 5650
Tele@@ 5809
special 519
zione 16184
CEE 23688
esthouse 25327
‧ 31416
entertainment 3772
CEO 4529
zioni 23436
経@@ 32914
ink@@ 14600
阳 32915
CET 6989
CES 24386
cause 1424
exo@@ 17635
Umgebung 29812
galaxies 21013
delegates 10576
ː 31246
ŭ@@ 30248
delegated 21163
 31988
resumed 12483
determining 9168
stiftung 28669
timer 21026
times 352
Dar@@ 6389
praxis 27776
೧@@ 31989
powerful 2279
└ 31044
Ide@@ 19376
گ@@ 30647
orthop@@ 23013
aspec@@ 29701
Frau 26446
tarif@@ 29528
survi@@ 6939
stral 27179
gment 11895
je@@ 3012
lists 4885
chemicals 6458
liste 27845
འ@@ 32916
ღ 31990
submitted 1743
navi@@ 24240
Religi@@ 23125
Hou@@ 7279
enforced 13184
Probe 28700
Flying 22710
algorith@@ 28955
cun 28520
Other 10470
Interview 25222
模 31247
Inland 28044
Administrator 23600
battles 12348
relatives 8112
只@@ 30408
Babysitting 24002
 34232
vents 19942
PIN@@ 26965
Pop@@ 10274
Lock@@ 19565
Centres 21236
brun@@ 20116
gallery 4006
ure 2551
urg 22005
ura 10182
CEP@@ 23626
denburg 21694
urn 18705
uro 16747
uri 18189
brus@@ 15028
urt 11872
涩@@ 32917
urs 3887
gest 16889
ury 9608
schein 29240
 22114
ř@@ 15877
predomin@@ 23788
nes@@ 25532
篷@@ 34233
至@@ 30521
傳 32918
won 1132
inherited 15506
腿@@ 34234
esur@@ 23521
achieve 1286
proto@@ 16583
局 32919
Wall@@ 10742
kopf 27348
maritime 5994
decentralisation 23949
Fitness 19395
trucks 9035
commen@@ 8060
tuned 18022
广@@ 31045
cataly@@ 22546
Austrian 3525
Spin@@ 23316
EAD 28216
oi@@ 21205
immigrant 14672
officials 1667
̕ 34235
operated 5399
Apartamentos 25066
Ɲ 32920
tene 26643
tend 4928
Cau@@ 21412
minim@@ 10322
tens 6432
tent 8376
ken 5169
kel 16069
200-@@ 19114
Posselt 22978
ked 3664
interfere 13872
key 719
usch 25566
ket 14165
kes 5081
ker 2499
mage 12713
hits 5864
Business-@@ 29581
Enter@@ 26092
limits 3429
situ@@ 18501
ũ 31991
び 32483
Quebec 17870
83@@ 10284
has@@ 7461
17@@ 830
Karls@@ 28724
diplomats 15118
迈@@ 32921
Kne@@ 27678
羡@@ 34236
sin@@ 2798
cent 1441
Alle@@ 16642
immense 9994
versal 26517
aler@@ 14224
shoulders 13242
controlled 3609
constitutes 7120
millenni@@ 25890
得@@ 30175
Ê 29046
controller 10433
常 34237
smoking 6273
Sturm 28678
Jean-@@ 13271
13,@@ 6876
ECspokesAntoine 28734
dynamism 18335
juris@@ 23989
吨@@ 34238
examines 17053
bark@@ 24839
arm@@ 8538
surface 2373
examined 5717
jord@@ 26395
arb@@ 5651
parte 25963
demie 28972
campus 10858
Bangkok 13048
parts 1093
speaker 5674
party 946
Ecu@@ 22475
sprin@@ 13035
http 105
Servi@@ 25942
regul@@ 11781
mag@@ 12489
Innen 29728
destruction 4380
scarcely 18040
雲 32922
40-@@ 8681
zog 28691
corporation 12242
Gordon 10465
increasingly 2288
oak 12733
ῥ@@ 31992
detail 2925
distant 9158
CS@@ 5848
Ñ@@ 15217
Wireless 19388
涯@@ 34239
density 10017
庫 32923
large-scale 8280
a.@@ 2904
Divi@@ 23392
hin@@ 4685
disappearance 14803
WAR@@ 19674
ら@@ 30064
Limit 24608
Nelson 13915
loss 1660
Cookies 25367
necessary 542
lost 1379
ﻫ 31993
payments 3000
Canadi@@ 11994
lose 2789
rote 28500
娃 32924
didn 1554
library 4513
U. 21150
cem@@ 8013
EEE 21088
home 416
識@@ 32925
EEA 11450
EEC 8288
broad 2910
Kulturen 25123
grinding 18525
kul@@ 19689
demonstrated 5134
Z-@@ 24457
limitations 8914
Ề 34240
淹@@ 32826
CI@@ 11230
Trib@@ 17263
reaching 4905
翁@@ 32926
mal@@ 5171
Up 8450
Us 13081
❑ 32484
ł@@ 11571
recom@@ 23664
mac@@ 11069
refuge 11245
Euratom 19816
az@@ 3738
ao@@ 11679
UT 16320
UV 17415
UP 19880
US 526
UR 15628
UM 16643
UL 19691
UN 2094
UK 1349
UE 21718
ด 30278
UC 19547
UB 22993
ere@@ 14355
previously 2748
Buen@@ 28659
ENMinister 28839
occupi@@ 26638
cocoa 16859
Internal 7642
℔ 32927
pointless 20617
gruppe 27383
additional 944
Daphne 24053
程 34241
north 2366
itably 22547
tor-@@ 19244
Chamber 4893
gain 2703
í@@ 3971
itable 7829
highest 1725
Metro@@ 20887
Kinnock 20028
King@@ 18588
幽@@ 34242
准@@ 31762
Einstein 20085
CON@@ 10653
display 2481
urging 13997
蜜@@ 34243
marketplace 13363
universal 4650
り 30848
compromises 14216
re-@@ 1563
beats 16861
hun@@ 15426
education 974
functions 2778
د@@ 28187
Geneva 4825
ingredients 5035
circul@@ 10549
Million 19743
Jamendo 28188
幌@@ 32928
orna@@ 14895
Welle 28444
▼ 30155
ɫ@@ 31046
Hin@@ 8954
stat 22227
star 1850
stas 20086
stay 558
stag 11817
foil 18036
stab 25041
additionally 6188
Politi@@ 27160
stan 22215
Ray@@ 15808
ceas@@ 18169
8000 21972
hne 25376
ச@@ 32929
统@@ 31417
indirectly 10750
Corsica 20540
aided 19356
aculture 29247
psychiat@@ 14546
HOL@@ 24452
έ@@ 27054
№ 28455
consists 3151
emul@@ 15372
aud 17826
langu@@ 21413
auf 6306
Honda 17118
disability 11709
pensions 8185
Crus@@ 22216
aus 7327
bays 18528
swap 17673
aux 7448
sorry 5482
场 31047
lu@@ 2265
铜@@ 34244
collaborate 16192
void 12054
家 30676
Arab@@ 24903
Temple 11350
1000@@ 18253
voir 13513
agen@@ 15211
crops 8417
雾@@ 32930
120@@ 6289
Diamantopoulou 25269
man-@@ 13803
enhance 4616
Sonn@@ 23697
verbo@@ 27688
Ek@@ 24003
》 30776
Bro@@ 4246
颐 32931
likely 1422
Ù@@ 30217
負@@ 32932
是 30554
foodstuffs 13615
Wasser 28645
mee 26741
med 3058
niche 17094
mea 15030
mel 15604
運 31994
men 625
met 1669
nicht 13296
mes 5162
mer 4089
教 32933
sign@@ 5939
Versand 29776
Extra 24544
获@@ 31418
breath@@ 15682
Packaging 19817
erup@@ 9945
Lyon 11769
Russians 11191
mobility 3983
ช 30383
objectively 20163
Download@@ 28333
guests 766
Piano 19936
ോ@@ 32934
WHO 13582
Carbon 21836
klore 18714
尾 32935
Á 28314
tra@@ 2038
under 230
disruption 15267
berlin 22418
Requi@@ 21484
メ 32936
room 278
roof 4733
movies 5191
exceptions 9507
root 6003
nisch 27116
Gre@@ 5041
Chrome 19177
Corporation 6301
Wizard 23297
stressing 15930
10,000 7148
foods 6582
Й 31763
autonomy 9597
amazing 3931
config 24168
undesirable 20553
Lucas 16547
provis@@ 26112
manuals 19811
differ@@ 22665
loyalty 10118
ova 12899
ove 20196
ovo 17332
defen@@ 11637
ry-@@ 19440
third 599
葡@@ 31995
typ 28340
Fris@@ 25153
circu@@ 25023
Elec@@ 9008
operate 3417
athletes 8917
priori@@ 20002
brücken 24911
oper 10939
论@@ 30777
War@@ 4288
Online@@ 28818
Understanding 22314
before 213
Maschinen 29209
personal 707
WOR@@ 20387
gente 27826
crew 5153
Path 20883
gents 13999
ׅ 34245
combination 2633
liers 17770
anic 13115
ania 7981
modification 10438
St.@@ 22897
Agenda 7590
all-@@ 4643
forwar@@ 22543
Intelli@@ 23269
Iber@@ 21981
NET@@ 23665
客 30849
Seite 17883
arrested 4155
ventilation 15115
Postgre@@ 26721
wage 6031
accoun@@ 16337
Check 17112
durability 16087
aida 18872
Europeana 27935
trading 2609
privatis@@ 28370
forgot 16077
aids 13336
Beitrag 24503
merchants 17323
Ạ@@ 34246
Appartements 29686
사 32937
compla@@ 15809
彩@@ 31764
debit 15107
03@@ 6152
Wa@@ 3412
foto 24493
telecommunication 20280
resume 11044
Roth-Behrendt 25601
们@@ 29997
이@@ 31996
urban@@ 19690
ton@@ 4759
André 21015
SSL 17665
physi@@ 5067
Cambo@@ 23535
vin@@ 7425
PI@@ 18828
floors 4264
崔 32938
afflic@@ 14006
welcom@@ 28765
agra 18935
kay@@ 17542
kal@@ 15370
Fren@@ 14108
Schin@@ 24598
Stab@@ 27857
制 32939
guidelines 3071
້ 32940
友 32941
Immun@@ 22674
lear@@ 12780
Montre@@ 22296
ference 19050
requisite 21006
വ@@ 32942
begins 4454
駄@@ 31997
ettes 15640
ഷ@@ 32943
p@@ 330
etten 26297
거@@ 32485
跑@@ 32486
jeopardise 21773
palace 7510
acquain@@ 17709
telle 28343
Johannes 17487
onder@@ 10772
Ministerial 19665
tells 4973
Egyptian 7124
媛@@ 32944
fitting 10115
worsening 18126
tunnels 15834
IF@@ 8337
Fak@@ 27479
scienti@@ 19459
cli@@ 5371
IK@@ 12646
m@@ 434
back@@ 3143
scann@@ 20834
弯@@ 34247
Restauran@@ 28501
Dennis 17251
observation 7737
Goe@@ 28040
foc@@ 19855
athon 27854
乾@@ 31419
話 30904
competitors 6633
泰@@ 32487
具 34248
gli@@ 4877
SMEs 4687
aquatic 20559
ambassador 11516
probe 13347
gemäß 29720
supplied 5347
མ 32945
etary 11657
weekends 11466
表@@ 30778
daher 29218
ర 31998
Schön@@ 19696
14.@@ 3245
End@@ 24848
Uri@@ 23029
ве@@ 25186
teenth 9886
tab@@ 3434
Holstein 28203
iers 24000
earn 5540
MAR@@ 13974
Fans 26440
monumental 15071
洒 32946
richt@@ 27042
equip@@ 22454
ears 9115
Partners 12479
ssi@@ 7603
testing 3035
૦@@ 31999
CCD 24954
vei@@ 25882
Ye@@ 15944
incorporating 15897
y.@@ 11160
Tool 19420
Lange 21844
artificial 7841
Ę@@ 30258
稿 32488
oma 15584
uit@@ 15901
ome 7288
Tunnel 22321
omo 17072
oms 6374
Hol@@ 3451
Ø 25361
motto 10384
Klö@@ 27732
eli@@ 6222
suggested 4211
고@@ 32489
TAC@@ 26232
resistant 8674
deregulation 17903
uncertainty 6894
solven@@ 28973
journ@@ 7826
展 34249
천@@ 32947
鱲@@ 32948
presumably 15303
Euros 8176
cho@@ 5014
torium 20018
neutr@@ 28901
ぞ 32949
emen 15435
√ 30097
imperi@@ 13867
Y@@ 1031
asks 7307
basis 681
Ɠ@@ 32950
tiny 6857
ting 748
commission 5719
Mün@@ 23556
trigger 10599
detrimental 16779
interest 713
basic 1487
entered 2857
lovely 4340
jer@@ 11413
deeper 7502
开@@ 30283
Eric@@ 29478
deepen 16378
Voice 17461
environmentally-@@ 28616
Catherine 13210
茂@@ 32000
Process 9272
2010-@@ 2992
DS@@ 8411
ceilings 12659
botan@@ 18258
Amaz@@ 20959
quali@@ 11166
seven 1851
cane 9146
V@@ 609
ks@@ 8936
cana 22370
cano 22139
eball 11232
cans 14959
no-@@ 7228
disappear 9972
cany 29714
じ@@ 30677
ẽ@@ 34250
parish 10198
V. 11548
Förder@@ 29194
Kl@@ 16584
ré@@ 6272
world-famous 17816
Brussel@@ 27593
colonies 17340
Reli@@ 28053
evolve 16272
elli 9572
PROGRA@@ 27753
ello 6945
VE 18948
VI 10079
ella 4638
VM 24050
question@@ 16167
VO 24719
VP 18857
VW 17582
ells 8009
investi@@ 25098
aneous 18897
Vb 28717
无@@ 31536
programs 2302
Bestell@@ 29452
failing 7002
potenti@@ 14433
jahr 29320
programm 26296
800 3053
yours 10107
Roh@@ 18291
agon 13286
yen 10430
yea 17449
DIN@@ 26397
yed 3472
assigned 6317
fighters 7862
year-old 2032
Museo 22585
এ@@ 32951
yes 1795
peacekeeping 19822
yet 571
 30779
royal 8892
fashion@@ 24512
scru@@ 20910
koh@@ 25432
Andalusia 8202
万@@ 32490
从@@ 30555
♠ 30984
Moder@@ 18502
supervisors 21600
Instru@@ 27560
dra@@ 3104
supervisory 10066
con@@ 723
Fest@@ 19887
feh@@ 27384
Art 2893
ં@@ 32952
K-@@ 10788
ï 24309
Thom@@ 8842
Arc 18755
Are 14707
10.@@ 1065
ren@@ 2793
∃ 32001
scap@@ 17945
dean 22906
CONT@@ 20979
Zit@@ 27103
somehow 8619
elderly 7058
dear 6077
manifest 15182
施@@ 32002
microwave 9127
buffer 14932
Haar@@ 24060
carte 11312
Feli@@ 21671
particul@@ 14271
confrontation 12812
Ay@@ 8887
ession@@ 17029
oren 23197
stant@@ 18750
ored 11801
蕭 32953
magazine 4455
afternoon 3069
D.@@ 15471
採@@ 32491
orer 17926
ores 23735
Bom@@ 17817
managers 5088
Schweizer@@ 27912
dows 13261
ụ@@ 31765
down 333
Bor@@ 5115
Art@@ 19662
ception 20560
Seb@@ 25160
tennis 4365
editor 6302
fraction 14945
air-@@ 17521
factions 18791
empower@@ 17818
Herman 19435
pivo@@ 16230
Host@@ 25711
eth@@ 7311
ttle 24017
January 507
Ghan@@ 26007
analyse 10222
landing 8096
Holo@@ 26188
Ἐ@@ 31766
ique 22263
适@@ 30985
prevents 11073
broaden@@ 18856
Wiel@@ 24048
strengthening 3874
80-@@ 15742
Nuclear 14930
one-third 18275
ነ@@ 32954
Gaza 5071
cks@@ 21246
Highway 14424
marking 9932
Tibet 10146
ombuds@@ 24270
Cust@@ 24987
客@@ 31048
調@@ 32003
ens@@ 3548
dienst 27274
2500 16521
faction 17571
utilities 14219
throp@@ 20734
B@@ 308
journey 2845
Websites 25503
blood@@ 13637
weekend 3044
ವ@@ 32955
cham@@ 16431
鯨 32956
jacket 13621
Büro 29321
mö@@ 24424
restored 5551
ance-@@ 15677
Ć 29976
ment@@ 4124
relieve 17414
capaci@@ 28592
dv@@ 20793
兴@@ 30780
Tel@@ 6599
premises 6944
proxim@@ 24999
retention 12173
21st 4984
anticipation 17135
meisten 29790
disorders 9950
litig@@ 28270
Ihnen 27561
father 1538
0 126
網 32004
meister 23670
sovereignty 7235
Grill 24265
ำ@@ 30259
LCD 9259
congratulating 16644
ぐ 32005
advised 7949
ħ@@ 30499
attri@@ 22868
pod@@ 18548
命@@ 31248
6.@@ 1431
proposals 1340
me@@ 1445
round 1552
Vá@@ 23794
unexpected 9558
tit@@ 15559
Merger 21593
dealing 3261
measurable 19595
hem@@ 12543
Lago 23308
Lage 24284
targets 3331
Head 7092
DS9 19028
imagined 14669
Wind@@ 20692
港 32006
suspect 7729
international 312
妇@@ 32957
filled 3450
当 32958
plen@@ 17474
ዋ 32007
DSS 28395
occo 28956
DSL 22140
box 2136
boy 4116
･ 31767
го 23845
Lotus 20904
bor 19873
bos 22179
bot 16100
bow 8277
spheres 15281
Ok@@ 10936
Session 21818
bon 13234
boa 26131
full-@@ 6336
yar@@ 15556
Calen@@ 20327
乗@@ 31537
metaboli@@ 12031
つ 32008
hand@@ 2432
Mus@@ 8692
visit 630
vineyard 15183
aries 3247
Hartmut 28515
關@@ 31538
politan 26566
Malaga 15021
Hostel@@ 29791
ბ 32959
mil@@ 9059
every@@ 23548
ў 31249
Ang@@ 22540
PET@@ 25615
Scan 25285
ド@@ 30590
making 575
Archive 18817
nearest 7833
Af@@ 15923
ids 6732
sample 6027
Limou@@ 27921
annu@@ 16945
Tristan 23724
ido 25478
ē@@ 27073
but@@ 6078
looking 765
ʲ 32960
Power@@ 10035
146 13747
147 11391
144 11960
145 10423
142 10395
143 12450
140 5447
141 11572
conc@@ 6788
148 12345
149 10538
deforestation 21570
membership 3629
⅛ 31420
灯@@ 32961
Series 7620
ISO-@@ 28396
HU@@ 21457
basket 10828
nous 17480
맨@@ 32962
shoes 6693
Generator 26101
disclosure 9212
Đ@@ 29539
equip 18720
Entreprene@@ 23570
doll@@ 27327
та@@ 24296
group 399
monitor 3833
interesting 1723
Rail 13522
Guatemala 14863
Rudol@@ 25665
South@@ 13198
policy 318
证 32492
♈ 34251
lunch 3646
치 32963
Berufs@@ 29263
云 34252
Beri@@ 27219
Sevilla 22187
Seville 13692
Minimum 18657
conventions 9746
Pirker 26713
ĝ 32009
Ken 15523
Lern@@ 27510
Meckl@@ 23827
Funda@@ 28366
Pocket 23513
condemns 20259
Aires 10833
Key 15790
multilingualism 23753
That@@ 28587
assurance 7550
Commerce 8721
G 1500
Rights 2500
auch 12798
Luigi 22371
で 30500
Tirol 24777
Ble@@ 20877
amente 24995
exper@@ 23347
waited 12827
first 106
ill-@@ 12458
rapporteurs 7795
fleeing 17310
nutritional 14927
kern@@ 23820
Black 4316
গ 32964
Sis@@ 21358
ль@@ 21304
ESDP 23083
Legi@@ 27505
PVC 17098
orium 24759
moisture 14524
reiter@@ 25479
fiers 17875
speaking 2192
ange@@ 11275
Thür@@ 28819
adjourned 21514
allegedly 8232
ڤ@@ 32965
权@@ 32010
译@@ 32011
serves 3553
set-up 15458
Consulting 14739
coinci@@ 13967
形@@ 31147
西@@ 30465
跆@@ 32966
Kamp@@ 22754
Schmid 24315
lich 10974
lick 22274
Container 26332
址 32967
lica 11870
lice 23494
gnon 21563
秀@@ 31421
lics 16900
ふ@@ 31250
Region@@ 28217
巢@@ 34253
shocked 11673
detec@@ 6816
e-News 26311
metal@@ 23393
interior 3938
performance 1061
Kazakhstan 13563
ultimate 6128
bets 11685
200 1025
203 12276
DHL 21491
205 6520
204 14730
207 14548
206 14464
209 14171
208 13369
incidence 16482
beta 16153
offer@@ 26474
sheets 6135
complaints 6049
beth 24869
Tr@@ 8364
选 32012
radioactive 13533
compounds 12852
夛@@ 32968
स@@ 31251
デ@@ 30720
anti-@@ 2377
WD 22395
WC 9853
WB 19894
WA 18182
trans-@@ 21960
WN 22034
WM 25164
rad@@ 19016
舞@@ 30321
sites 1438
poorest 8371
WS 14487
reach@@ 29047
WP 23229
threshold 7948
sponsorship 17270
Stil@@ 28883
We 2086
treasure 11926
storms 13171
满@@ 32013
ی@@ 29743
prison@@ 13200
kilometer 20605
enthusiasm 7999
awareness 3810
ges 3748
ger 2257
get 222
빌 32969
SECUR@@ 29693
gee 19931
ged 2920
wasser 28742
gen 4015
gem 16778
ü@@ 7367
Right 14702
Mitter@@ 25017
Angel 13262
ฉ@@ 30156
bearings 20290
requesting 13573
E-Commerce 28286
miles 2704
Weiler 27385
Education 4311
Prin@@ 9940
ence 2339
declared 3597
Grant 17021
seas 10462
携@@ 32493
seat 3308
declares 14241
eliminating 12261
Grand 3235
TAK@@ 24806
ency 5856
wonder 5030
徒@@ 31768
satisfying 14852
ѳ 32970
label 5054
boundaries 8837
enough 843
harmoni@@ 12485
across 906
infrastructure 2062
屏@@ 32494
FOR 10237
Amo@@ 25433
restric@@ 22572
transl@@ 9252
nationality 11946
Cypriots 23853
c-@@ 9184
conce@@ 10080
Open-@@ 28253
implic@@ 13328
tour 1693
tous 23854
tout 17587
dka 22077
among 523
zn@@ 16082
firewall 19474
Pearl 17852
aults 10370
뉴@@ 34254
Colo@@ 17368
Ο 29356
adults 3570
considering 4118
Assembly 5075
tuning 17956
capable 3521
acies 18254
us-@@ 13664
judging 16062
derogation 18637
star@@ 4227
400 2252
erz@@ 27438
dramatic 5984
wake 5588
Defiant 25973
declaration 4434
Action 4727
Apa@@ 28624
딘@@ 32971
^ 16877
sound 1511
Phili@@ 17700
Almunia 22586
误 34255
数 32495
1100 17004
promising 7466
cancelled 7880
investigating 9417
dison 14349
cock 12435
ôtel 29404
etri@@ 23014
Sudan 7390
bizar@@ 28916
Factory 19133
sleeping 6657
strain 10652
sudden 8893
Symposium 22695
protein 8071
CHE 27492
Dele@@ 22437
cefully 20693
њ@@ 30444
lava 17335
Mobile 7494
่ 28938
Hun@@ 17107
sci@@ 3218
extended 3087
Bosnia 7834
त@@ 31539
assist 3933
Barcelona 2458
companion 14356
197@@ 9502
Hur@@ 16695
急 31540
sä@@ 28033
Amster@@ 28083
Motors 17428
fem@@ 11138
装@@ 31148
hund@@ 23743
Carlton 21430
Chemi@@ 21801
cium 16400
на@@ 19355
convened 19867
consisted 15218
被@@ 30905
outdoor 3310
전 32972
sights 6227
unofficial 17740
Ziel 29425
nam 24073
Promenade 22599
quelle 28307
poss@@ 12223
Piet@@ 24158
Ramada 24171
剩@@ 34256
ULT@@ 22698
Ɔ@@ 32973
Xen@@ 24526
riti@@ 12228
gering 12618
≈ 30124
entgegen@@ 29813
肉@@ 34257
Krat@@ 27349
olog@@ 18037
Operations 18234
.e@@ 19309
ᾶ@@ 34258
identifying 9485
sou@@ 4600
've 1382
屿@@ 32974
.h@@ 17786
对 31252
電 32975
passionate 11309
partn@@ 21496
Entertainment 11380
Tages@@ 27172
納 32976
AC 6042
Kinder 17371
images 1473
Ni@@ 3161
lotte 16321
outs 5789
calculating 17987
Marín 26934
Men 11823
Milli@@ 13616
Ἡ@@ 32977
kms 18802
GN@@ 17963
outh 16743
Tropez 21923
Configuration 25585
fant@@ 27896
稲@@ 32014
ч 29439
each 268
Vietnam 6896
philosophi@@ 24030
maxim@@ 16116
钧@@ 31541
N.@@ 7820
AP 3313
drag 10773
â@@ 7548
km2 23927
pockets 13929
Images 14315
Monit@@ 29364
asen 27622
fertile 14888
文 30037
skilled 6446
150@@ 7069
energ@@ 26771
Glen@@ 13410
助 31769
deadlines 12234
labelling 7500
e.@@ 4223
arranged 5929
Alk@@ 24714
Ven@@ 12970
fal@@ 9037
resett@@ 24931
imagination 9169
examine 4826
declar@@ 27310
Broek 25738
ম@@ 31542
again 380
위@@ 32979
Ludwi@@ 24674
摆@@ 32496
Climate 7867
zion@@ 24092
dischar@@ 15066
equitable 17853
readings 17911
pis@@ 20029
480 12566
Plug@@ 28159
assets 3048
Epo@@ 27012
ggen 26959
u 449
colleges 15378
founder 5621
grassroots 19189
Wi@@ 3875
Workers 14041
founded 2066
implement 2649
expressions 12816
宝 32015
preserves 20845
Championship 8687
WW@@ 11937
laid 3098
EZ@@ 20402
oun@@ 10851
preserved 6703
conven@@ 14684
劣@@ 32980
alisation 4895
Î@@ 15036
fundamentali@@ 19171
Training 9473
ium 16338
sitting 2744
ύ 29959
insur@@ 8758
Günther 24077
Socrates 21172
厦@@ 32016
у@@ 11983
ius 14060
Sebastian 12787
Pfei@@ 26627
wa@@ 2138
gg 13945
washing 6338
Appartement 25255
Labels 29067
Vilnius 21334
20th 3349
Impact 19962
hard@@ 6575
Lad@@ 20691
들@@ 34259
zers 13270
go 279
zero 6694
perspective 3316
plugins 20087
Andris 24664
creatures 10516
defence 3371
waffe 28800
associate 9878
dut@@ 23744
po@@ 829
访@@ 34260
5000 13647
malaria 15016
eternal 8473
20,@@ 10729
dereg@@ 24894
ُ 32017
◎ 30556
kler 20990
kles 19210
threads 15365
ิ@@ 30012
வ@@ 32981
Clark 13067
Ġ@@ 32018
energi@@ 23220
misery 14829
mentions 16370
Fretwell 25686
業@@ 32019
Reform 11903
équip@@ 29732
Baroness 18457
IC@@ 4281
shareholders 5189
Dop@@ 24771
IP@@ 4300
governance 4066
ssen@@ 26842
business@@ 12013
Governments 16560
lander 18097
ital 12368
Americas 14942
PD@@ 9700
Erkki 26489
American 820
itas 18803
Roger 12235
dubious 18543
Chiang 22819
Seefeld 26169
hour 1811
recall 6957
specializes 17920
guards 10031
remain 1274
Adi@@ 23209
specialized 6961
Bade@@ 29274
伝@@ 32982
cation 10634
current-account 24231
minimum 1996
numbers 1865
UNESCO 8643
치@@ 32983
東 32020
Termin@@ 24018
stin 26289
needs 530
Я@@ 30169
policy@@ 21016
acts 2842
stic 6846
ih@@ 11556
maps 3640
sacred 10502
mitig@@ 20941
civilisation 16133
Profile 21843
Content@@ 27869
Schneider 18970
questioning 12891
defini@@ 29210
coming 1054
Kelly 10830
sson@@ 28862
চ@@ 32984
使 32986
溫@@ 32497
門@@ 32987
师 32021
Swar@@ 23882
through 192
Sici@@ 21602
SpA 27096
public@@ 15814
piscine 27746
web-@@ 18317
,00 4393
ظ 32988
인@@ 32022
Kallas 23357
δ 30678
働@@ 32498
large-@@ 21603
socially 9921
flavo@@ 22252
primary 2977
freundliches 29772
GI@@ 19387
dney 11911
compound 12254
90-@@ 16478
neut@@ 23748
viewers 9198
dner 17672
bb@@ 11732
Ţ 34261
Cum@@ 16696
Laptop 25923
ons@@ 13805
isation 7597
micro 18033
에 32989
repeating 17245
mercy 8582
ˤ@@ 32023
） 29987
 30906
engaging 11506
mptions 28531
垃@@ 32990
32.@@ 17713
コ@@ 30466
................@@ 26843
ζ 31253
Cook 13890
evaluation 3624
Grie@@ 25831
Mario 11461
enforcing 20230
Schaf@@ 28735
extraordinary 4556
WITHOUT 24001
bä@@ 29837
backed 5879
beginning 975
ventions 28550
needing 17051
NASA 10984
meaning@@ 20267
configurations 18678
Parlia@@ 23449
夹@@ 32024
advertisement 15436
ї@@ 29769
STO@@ 25933
embraced 17034
fiction 10425
• 1632
forschung 27328
ຄ@@ 32025
Environmental 8592
र@@ 30481
Nom@@ 19874
指@@ 30591
photovolta@@ 12145
XI 16105
XL 8881
交@@ 30445
ỉ 32026
父 32991
Peti@@ 25318
XX 20623
LIN@@ 16379
a.s. 25673
XP 7315
XV 23259
Xi 21325
bath@@ 15949
Partnership 7070
岸@@ 32027
obstruc@@ 15080
Linux@@ 25944
k-@@ 5328
11.@@ 720
CECAF 28075
stric@@ 16631
veau 16713
showers 11863
Nabucco 24339
Administrative 15775
erreichen 29582
Power 6464
depending 2669
ation 489
Lucia 20422
spee@@ 24599
lifts 9564
sea@@ 15184
Kultur 27944
near-@@ 15307
eggs 7118
chart 10510
essa 14554
kl@@ 4028
ན 32992
esse 10681
services 317
esso 27754
Kontakt 29479
ka@@ 6617
康@@ 30850
Port 6230
reflections 18650
rebels 8820
commissions 18008
businesses 1952
headlines 14597
£ 1573
avoi@@ 28445
merger 9003
Merk@@ 26403
experiment 8216
undry 27130
Solidarity 15308
Fiat 20094
Magic 14259
express 2578
Twi@@ 18130
breast 7580
Serbian 12567
ญ 31422
И@@ 29143
Mc@@ 2006
tournaments 11039
motorcycles 19235
doubled 11071
己 32993
logistic 19756
doubles 16464
dants 7557
操@@ 32994
動@@ 30467
restaurants 1638
finan@@ 23146
SKI 26254
PORT 25917
GER 23030
Sustain@@ 19124
Emm@@ 17846
C4-0@@ 21112
asbe@@ 21401
tex@@ 6499
GEA 25165
vascular 12840
GEN 25755
ini@@ 3864
opt-out 21640
ebenso 29911
exi@@ 19913
bourg 16201
mously 24049
inv@@ 5578
premise 18756
煙 32995
ი 30143
Onlin@@ 28435
Duisenberg 26283
10th 4842
restaurant 1178
foreign 1091
Ausstellung 28601
Ź 32996
focused 3297
Yes 11950
Sep@@ 6904
point 343
thalle 27755
aspir@@ 18532
expensive 3470
Import@@ 26722
Immi@@ 28766
does@@ 27870
throu@@ 28757
rivals 10464
arbeit 29059
part@@ 7986
exual 14842
turel@@ 28767
Ł@@ 26024
adresse 29574
Jim@@ 13173
Stockholm 8019
Spieler 29665
Darmstadt 21764
politician 11654
FY@@ 26417
elections 2203
の 30384
deferred 19066
NCC-1701-@@ 29413
infec@@ 24895
ợ@@ 31423
See@@ 21283
century 871
V.@@ 22681
faceted 20069
themati@@ 27086
Easter 9119
■ 28570
inte@@ 10016
GEB@@ 29814
anthrop@@ 19019
Landes@@ 23736
corridor 14606
‹ 21154
issance 16458
活 31543
Copy 25206
围 32028
development 265
Statute 13475
р@@ 12592
sums 11470
Agr@@ 24749
北@@ 30176
84@@ 6909
ardous 28521
比 32029
Lond@@ 20370
adhe@@ 19893
Verkehrs@@ 28271
def@@ 3551
VIL@@ 24208
GMOs 13845
task 2088
ς 23700
Councils 18477
stellen 26312
Agre@@ 27808
Economic 2667
withdraw 6873
saf@@ 8968
residen@@ 25733
Vla@@ 21832
uph@@ 26506
nel@@ 22860
snow 4589
haf@@ 18829
shape 3135
appoin@@ 25653
alternative 2329
1963 12075
timber 12495
clini@@ 10740
cut 1486
cus 7814
cup 6883
source 983
cue 16051
Christopher 10774
atur@@ 5863
apprais@@ 27343
ield 16946
Online-@@ 26780
Commons 13514
近 31544
ธ@@ 31050
Alter@@ 28376
⇥ 32499
憨@@ 32997
Flü@@ 29224
Tei@@ 21173
団@@ 34262
valleys 13056
O-@@ 11351
collectors 14202
eib.org 23562
absolutely 2612
delegation 4838
೦@@ 32030
ĭ@@ 30907
mid@@ 5683
值@@ 31545
Majorca 18118
decision 646
though 825
팩@@ 34263
Û@@ 28810
Togo 23341
epic 16202
tuber@@ 29068
Box 8875
omo@@ 25945
selec@@ 10658
oes 11890
Ol@@ 7215
佑 32998
RELEASE 20328
Bob 9232
Romania 3708
refin@@ 10624
卡@@ 32031
Captain 9959
subsi@@ 18504
Casti@@ 20429
osau@@ 18879
ゅ 32999
imi@@ 24257
省@@ 32500
seating 9057
Strauss 19699
derogations 20035
Umbria 22200
worl@@ 20463
café 10953
Silver@@ 20371
teu@@ 26917
錢 32501
ə@@ 29935
Γ@@ 29855
liegt 27989
BAS@@ 23514
Völ@@ 25083
translate 9702
underlines 13150
Filter 24642
underlined 11668
siv@@ 28736
subsidiary 6631
aggre@@ 15647
抱@@ 34264
crip@@ 19700
Beijing 5179
会@@ 30024
planet 4193
planes 9342
dign@@ 25687
Wiki@@ 21067
挨@@ 34265
constant 3732
nam@@ 13525
cury 23337
consulted 10651
cure 9922
curb 17153
organizational 13268
cafe 14520
ء 30315
Commissioner 697
divine 8906
elles 14719
eller 7679
reputation 4909
Israelis 12912
ellen 21396
Student 20062
Denmark 4269
uss@@ 10119
백@@ 33000
confine 21760
itali@@ 8714
elled 6353
cated 13297
cellar 10333
伤@@ 34266
intensified 15148
restoration 7676
cater 15962
utterly 14044
implies 9834
Dep@@ 15651
overlooking 6010
wards 7269
bankers 13385
Spyware 28320
AP@@ 6141
cooked 11029
implied 14468
Sahara 16239
presenting 5902
valves 18574
柳@@ 34267
system@@ 12903
ohn@@ 24346
ab@@ 900
Hat@@ 18175
泊@@ 33001
kli@@ 14266
Synth@@ 28297
Hay@@ 11697
literary 10343
insi@@ 8325
pleasing 16070
ֲ@@ 32502
presently 14283
Mobil@@ 28123
鸳@@ 33002
் 30679
glich 27168
Spiel@@ 20946
entire 1267
dustri@@ 27834
Verein@@ 28795
vé@@ 23637
Vest@@ 26844
mat@@ 2929
承@@ 31546
ceasefire 17156
havens 21094
Howard 12032
industri@@ 9503
time@@ 9841
Fast 21902
rivers 8092
East@@ 17606
Faso 22932
Easy@@ 23846
宽@@ 33003
assisted 11176
ฤ@@ 33004
aggio 24453
access 431
IUS 27224
ismus@@ 28670
packing 12896
healing 7542
safer 9990
talent 6616
Burkina 22892
Jennifer 15497
alis@@ 14960
味 34268
silic@@ 17493
principally 17719
climb 7844
honor 7444
composed 5913
contraven@@ 21607
Finale 28456
病@@ 31460
Multimedia 25246
Pisa 16883
composer 9624
zijn 25491
及@@ 31254
isses 25362
Hill@@ 21955
lun@@ 10147
cha 12982
che 2400
chi 7277
readable 21636
cho 14284
chs 12246
cht 5892
Daniel@@ 15598
reciprocity 20256
chy 10253
Freit@@ 1439
yester@@ 27985
Ė@@ 30076
schön 28448
bungalows 19139
Ñ 29516
prizes 9779
SW@@ 11967
Ultra 23801
HS@@ 12245
Sm@@ 21864
dation 12274
atorial 16436
closing 5362
Asylum 22838
rehabilitation 9570
Colom@@ 20606
Camping 18452
invoices 19368
tough@@ 16042
Extre@@ 25959
YS 21781
varied 5780
Щ 34269
Air@@ 8525
holds 4502
formations 16385
varies 11167
justment 29517
Mozambique 19744
encia 23657
profile 3304
SEP@@ 27723
Á@@ 15203
针@@ 32503
ق@@ 29625
wide-@@ 19964
sho@@ 3085
jo@@ 2389
o@@ 406
fif@@ 12490
Meter 27747
CUR@@ 24786
supranational 20382
ṣ@@ 33005
subsequently 6072
ზ@@ 33006
ature 8300
ov@@ 4719
Le@@ 2223
E.ON 10228
symbols 9295
horny 17301
EV@@ 10710
EC@@ 4744
晨@@ 31255
Girona 21932
accredited 18134
Flan@@ 25994
Nami@@ 25166
eux 16496
TEI@@ 29076
hydr@@ 10155
eus 14331
eur 9514
eesc.europa.eu 28072
cas@@ 4784
phi@@ 10508
Vorar@@ 25286
ו 31256
Robin 15796
刊@@ 33007
applicants 9419
Gare 19850
LL@@ 10540
cides 20477
Moroccan 16823
َ@@ 29150
onom@@ 17481
sives 13224
Gary 11662
Maj@@ 10463
flair 17931
3,000 8736
历 34270
Bab@@ 7941
植 32504
ፈ 33008
Print 17692
sexual 3278
゜ 32505
深 34271
Post@@ 11729
渡@@ 33009
૨@@ 33010
enforceable 20935
discrimin@@ 15067
China 698
样 31547
ạ 33011
approached 10863
workflow 17687
気@@ 30908
fourteen 18621
clarify 8068
approaches 5705
PROV@@ 25688
que 1493
qui 8486
quo 14694
Rund@@ 24609
ou-@@ 28571
Outlook 17035
Directorate 20379
allies 6627
Arden@@ 25549
Madrid 3361
recipes 11288
Verde 19868
Köl@@ 26372
aggressi@@ 19344
stag@@ 11109
kap@@ 23282
xi@@ 7152
reaches 7965
车@@ 30385
lagging 20412
str@@ 4484
reached 1480
ley@@ 19004
len@@ 5513
legitimi@@ 25602
Symbol 28516
flag 7084
sto@@ 2742
intermediate 12848
feu@@ 16240
gere@@ 28199
ﾕ@@ 33012
Davos 20968
戻@@ 33013
explanation 5889
acquire 7077
Freiburg 17044
Bordeaux 18581
hen 16376
consul@@ 15624
NT 18188
astri@@ 27936
5-0@@ 3428
lin@@ 2123
seinem 29426
seinen 27603
home@@ 8348
Clo@@ 15362
amb@@ 9796
馬@@ 30772
我 31548
versi@@ 24067
moder@@ 10854
have 32
disturbing 14242
X@@ 1603
dition 15204
seiner 28327
continents 11669
incentive 8817
concerns 1566
meeting 775
Ticket 16497
陆@@ 34272
kie@@ 23075
居 34273
UT@@ 725
lled 10083
UMTS 25187
witz 18664
Salzburger 26775
euro-@@ 21416
Cent@@ 15383
Un@@ 3292
回 32506
鉄@@ 33014
cler@@ 12906
introduc@@ 26154
disease 1973
Rec@@ 5312
Ret@@ 9669
Jord@@ 19851
Banco 25448
曾 34274
ƒ 31149
rotating 17768
Religion 23286
Joh@@ 14017
N1 21689
sibili@@ 27265
communism 15730
knowledge 1086
congre@@ 7487
コ 32032
lat@@ 5386
Jacob 9193
ANN@@ 26993
communist 9899
akes 8987
aker 8845
哈@@ 31257
Finnish 7015
starch 21352
Tanzania 16487
Komp@@ 26895
asso 25154
pave 19072
bound@@ 24744
perfection 12952
aked 6695
convi@@ 23510
TRAN@@ 21977
phantas@@ 29214
rage 11188
fixes 17068
teams 3188
TRAC@@ 26363
fixed 2955
abi@@ 17370
Trek 8857
Zoo 15760
Interior 11264
intensity 8543
我@@ 29203
liberalization 16438
coast@@ 19702
hibiting 27624
athlon 21664
imposition 19475
attempting 9659
blatt 26317
Stam@@ 22372
difficulties 3356
hoch 29808
Kommunikation 29565
boundary 15176
论 33015
globalisation 6920
dirty 10003
reproduced 16831
NO@@ 8053
esth@@ 25342
Macintosh 24425
Gh@@ 17166
commenting 16386
doba 23460
Tro@@ 5773
è 11481
equal 2345
transplantation 22217
.org 1709
Sor@@ 11661
慣@@ 31425
wander@@ 15063
magi@@ 13448
ӳ@@ 33016
disarmament 17311
coexistence 18718
背@@ 32033
vis-à-vis 17693
citizenship 8623
specific@@ 18638
qui@@ 4278
途@@ 34275
Schwan@@ 28718
Thailand 6484
Schwe@@ 27391
激@@ 34276
wurde 23425
difficul@@ 28059
Nations 2527
dou@@ 9675
assessments 10046
authori@@ 18489
耶@@ 34277
Jose 11210
welcoming 5614
cohe@@ 29592
eradic@@ 21137
glu@@ 7945
General 1804
🍴 34278
亚@@ 31258
revolu@@ 18996
志@@ 31426
arrangements 4277
dispar@@ 17137
お@@ 30027
partner 1650
Beach 4875
anced 23093
Return 19701
) 16
Poster 28427
巨@@ 31051
Nord@@ 12572
塩@@ 33017
Posten 29744
Panel 14449
Week@@ 22399
thou@@ 12741
sauna 4005
 31427
MAN@@ 15389
orte 29195
recourse 16233
Residenz 28108
D@@ 409
Senate 4881
Spring 8440
ṭ 31549
植@@ 30368
comparisons 18075
Total 13416
Weimar 20316
stores 4358
excise 17607
storey 14332
emphasises 14685
interim 7714
aromatic 19998
Fourth 17803
schlei@@ 28861
rup@@ 11133
gma 19574
demographic 9191
recommending 20585
Victoria 7895
gleich 28124
delegations 9327
281 14130
280 9183
03.@@ 1936
282 16350
285 13374
284 17064
ought 5295
resolved 5926
A@@ 371
ttem@@ 27340
ensuite 20952
Release 14713
hob@@ 11849
displaced 10741
NAV@@ 24020
like 102
excluding 9673
vibrant 10479
ל 30284
admitted 5663
mol@@ 7693
А@@ 27764
systemati@@ 28084
TION 22063
Muse@@ 23433
ÿ 24669
intra-@@ 20005
classical 6014
关@@ 30522
hail 14005
hair 3266
砂@@ 32034
enko 17088
recommendation 5310
Ad-@@ 29398
Rapi@@ 21785
Option 23877
OSS 24123
year@@ 13557
jen@@ 21703
discretion 9573
忍@@ 34279
contri@@ 24904
Russ@@ 27361
Baker 17085
Erit@@ 27013
fahr@@ 23160
Tanz@@ 26042
Frau@@ 26567
MAC@@ 25988
introduces 12130
Japan 1855
introduced 2447
tome 28171
处 31770
still@@ 17273
Rh@@ 19282
Jac@@ 12126
Iraqi 6487
Insi@@ 27152
sham@@ 13502
female 3589
toutes 26994
MEN@@ 25411
Briti@@ 25395
crucially 21865
November 383
Urlaub 29086
ces@@ 14155
beginnt 29825
Kas@@ 11842
insured 13854
time-@@ 9305
⅔ 31771
CEC@@ 29666
kraft 28328
versatile 12088
torate 13204
Len@@ 7992
seit 26538
condu@@ 23795
ABLE 22894
ω@@ 27465
Chem@@ 21059
Erika 19715
Don@@ 5451
scholar@@ 12638
sein 21828
natur@@ 13585
Laden 14395
exceeded 10030
periods 4739
-@@ 87
ﺖ 34280
ridicul@@ 23725
identities 16532
ม 30112
scri@@ 12818
HAR@@ 25590
dressed 9962
Tempo 28824
Zei@@ 21443
ople 19928
drugs 3189
Centrum 26267
bibli@@ 16387
orials 20255
jewell@@ 28593
ナ 31550
April 452
gungs@@ 28581
cheque 20369
found@@ 17372
Azo@@ 28875
唸@@ 32035
桥 33018
收@@ 31052
port@@ 8282
Alba 21528
Telecommunic@@ 28351
雅@@ 34281
2010-2014 27144
Mot@@ 19869
พ@@ 29255
Ė 29912
Communist 7653
ISDN 25368
4-star 8654
schöne 28746
344 17927
340 12091
Ά@@ 30909
whatsoever 8338
featuring 5928
Dyn@@ 21634
mini-bar 20838
@ 2021
Kö@@ 25124
sium 18892
omon 11680
PADI 24340
Fuj@@ 21926
質@@ 32507
sius 25517
型@@ 33019
Richter 22717
wick 12497
school 933
业@@ 31053
贩@@ 34282
ப@@ 32036
Pari@@ 15157
Pan@@ 5774
disciplines 12442
extra-@@ 18585
direct 1248
nail 18353
Pac@@ 20117
Palazzo 16234
unde 25188
Mugabe 16489
blue 2788
hide 7712
lymp@@ 17630
selected 2403
kus 26216
liberty 11139
abet@@ 26539
足@@ 31259
kum 25964
dissemin@@ 15187
persu@@ 15862
supplier 4729
supplies 4503
Migr@@ 29349
licences 14052
ZE 25666
ZF 23613
beck 14361
DE@@ 18394
典 34283
ⓘ 33020
gation 6493
distur@@ 10493
忽@@ 33021
luggage 8868
leaves 3967
unds 7472
museums 5097
skep@@ 3498
常@@ 30207
settled 6476
biometric 21877
prints 10747
Group 682
Fundamental 10039
売@@ 31772
patience 10404
۵@@ 32037
lobby@@ 25978
would 68
mess@@ 15664
motor@@ 7551
tenders 19839
distributing 16409
气@@ 30851
᾿ 34284
Event@@ 27584
Ҳ@@ 33022
wenig 29180
tions 1512
nement 21213
xide 23864
न@@ 32508
excellent 1029
té@@ 23597
abundance 11822
組@@ 34285
Crown 13122
deficiencies 15842
Jürgen 19047
努@@ 34286
sei@@ 7736
Brut@@ 27211
anch@@ 15710
estate 2652
preserving 11555
MT@@ 8061
MA@@ 11000
sied@@ 26907
wron@@ 13176
Monte@@ 14280
attract 6907
ceremony 5336
myst@@ 20088
talked 6515
dal@@ 10733
enquiry 16809
iso@@ 22513
ONE 18053
phenom@@ 21802
Muslims 6918
Poverty 23031
environment@@ 28224
toxic 9908
finalise 24184
Eritrea 22193
description 2558
lump 14647
to@@ 1090
tz@@ 6410
parallel 5692
습@@ 33023
amin 26062
splendid 8306
barbe@@ 20491
amid 7675
my@@ 4526
e-commerce 15366
ๆ@@ 32038
Rouge 21449
Dro@@ 14645
preventive 10494
Frauen 29112
reforming 16897
Tas@@ 18259
Spre@@ 23004
済 33024
staining 24204
蔚 33025
ima 19492
疆@@ 33026
heu@@ 20921
meworks 29796
diseases 3696
CHF 4463
prevented 7739
Inter@@ 3670
wholehear@@ 27293
manufac@@ 27604
CHT 28929
ك@@ 29009
rental 1856
da-@@ 17932
鏡 32509
þ@@ 26223
aler 14385
ales 4335
Four 14021
alen 19085
aled 6942
Taf@@ 26573
consolidate 12161
WLAN 20516
┬ 33057
다@@ 33027
れ 30680
t. 7721
ever-@@ 10954
ĭ 34287
崩@@ 32510
FT@@ 11036
rasse 27552
banning 15469
newly 4181
laim 11933
independence 3518
inos 16602
ρ@@ 21808
Helsin@@ 29379
Stahl@@ 29253
W 1122
boosting 13468
卡 33028
Chain 21774
Photo 12420
Ces@@ 18092
Sav@@ 12522
days 382
tolerant 21559
filter 7063
sches 27685
smokers 17192
Chair 14121
飼 32985
Cen@@ 21388
España 23601
arom@@ 17714
attractions 3716
encouraging 5168
fantasy 12120
adopted 1110
insulation 13670
Profession@@ 26164
ur@@ 1123
EU- 29902
prof@@ 7932
Congress 3111
gebirge 28801
cements 21961
ASA 23132
heights 15200
confirming 15329
tele@@ 15174
di-@@ 24734
prophe@@ 9521
191 13401
ஷ@@ 33029
incur 20233
.com 231
EUR 845
λ@@ 22666
frankly 13968
ứ 32511
Rest@@ 27337
immigrants 5492
tourists 4038
dil@@ 13422
bridge 3796
TACs 24117
Egyp@@ 14632
nec@@ 9002
seminar 7482
traditionally 8715
Laundry 18609
thoroughly 8313
Pun@@ 12212
derer 18589
thorough 7749
deren 26224
亿@@ 31260
Affili@@ 25946
ण@@ 32039
dered 11743
ftly 23821
hinter@@ 21852
GmbH 1991
ess-@@ 21601
promotions 14587
formalities 20193
clock 3707
hütte 28557
entertaining 13324
billi@@ 10608
汤@@ 34289
colors 5524
Cool@@ 22777
analogue 20246
dire@@ 25952
bain 25110
absolut 29540
screen@@ 13372
spite 5915
situations 3559
City@@ 19313
illustri@@ 24633
546 20013
徽 33030
р 24691
ǝ@@ 34290
té 13471
敬@@ 33031
GfK 25631
ቐ@@ 33032
槟@@ 32512
wedding 5842
neighbor@@ 17089
ver-@@ 18015
Moore 13265
Mediterranean 2382
些@@ 30177
hofer 19461
� 2939
pesti@@ 21373
ä@@ 5269
Cran@@ 17142
tamente 27282
Q-@@ 22544
1960s 9466
杀@@ 34291
今@@ 30781
Formula 12313
spin@@ 12323
mut 28377
mus 19352
栄@@ 33033
fingen 27953
muy 20599
continually 8405
mud 13812
finger 9536
hopefully 7584
Cler@@ 23001
discovery 6322
reiterate 13767
ຖ@@ 32040
Tree 18513
however 240
Ischgl 24483
news 1087
다 30446
fault 8149
schwan@@ 27392
tzen 28175
tzer 22419
ATIONS 24031
expense 6154
elf 26280
WEB@@ 26458
arr@@ 18279
県 30782
TVs 16117
hast 17174
alqu@@ 29541
conference 1352
ጽ@@ 33034
ί 30020
beneficiary 17556
ely 5210
Adams 16706
transatlantic 11302
tari@@ 10900
Alexandre 24469
Deputy 6885
곡@@ 33035
n 315
Herzog 24019
Е 30369
浇@@ 34292
Reform@@ 21381
Madagascar 19875
ш@@ 22548
tress 12739
accessories 6156
’ 56
洛 32041
ambass@@ 19876
CC@@ 6899
门@@ 31551
农 33036
beside 7057
ٹ 33037
cross-country 13207
Guantánamo 21574
ۂ 33038
peaks 12170
Eurozone 20810
decision-making 5520
郎 31552
Such@@ 28690
九 34293
real@@ 16322
shortly 4559
entre@@ 11496
dade 23691
衡@@ 31261
sla@@ 5430
ocean 6792
Manager 5887
虚@@ 34294
優@@ 31773
possesses 16589
Barcode 28957
Estonian 19944
proposed 1320
unemployment 2621
ဝ 33039
gends 27311
proposes 5964
grades 14521
depart 15194
gende 27138
Argent@@ 13126
Nuevo 24427
Photos 11920
洲 31553
Kuwait 18610
ẻ 33040
wissen 29227
gave 1556
unter 9553
breaks 7753
mas@@ 5194
烏 33041
scho@@ 12880
Zu@@ 9632
59 751
unten 29675
Heart 11146
eigene 29847
계@@ 33042
х@@ 26750
Echo 25655
renamed 19211
Slovak 10991
01-@@ 2966
僕@@ 32042
蟲@@ 33043
hunt 11538
terly 20534
壹@@ 33044
Parag@@ 28129
50 316
sm@@ 3340
election 1992
prote@@ 6455
Salam@@ 22518
Edinburgh 7332
Punkt 29626
chron@@ 10229
umes 10986
ans@@ 7881
孩@@ 31774
umen 27124
allocate 16980
Se@@ 3006
Tradition 24172
officer 4236
¡ 24145
deleted 9483
Whe@@ 14447
custom-@@ 20535
网 31262
Ð@@ 27225
Deposit 12280
ї 28632
erk@@ 8334
ɚ 33045
从 34295
坡 33046
ZI@@ 28522
attacks 2598
plying 17319
tori@@ 10875
fici@@ 21223
dinner 3076
ensure 589
ű@@ 29755
出 31554
ppa 22888
aha 27412
aber 17157
ppe 23676
modalities 22814
人@@ 29985
ppi 14480
ahn 17477
ahl 25203
bath 2962
Environment 3884
fers 9800
za@@ 12045
donated 13701
fert 27782
ahu 14030
ussy 16752
usian 29593
ppy 13301
58@@ 5572
red@@ 8457
vaccination 15300
sunlight 14253
stuck 8746
Infos 28758
amateur 14057
ń 23855
Rai@@ 17754
gorgeous 11818
payable 13916
14001 21210
Saudi@@ 24437
self-@@ 1790
require@@ 29283
व@@ 32043
GMT 1976
flavour 14046
harmonization 18757
Trans-@@ 21809
chest@@ 17721
Von 25319
atte 23646
atta 19914
exhau@@ 21719
detain@@ 14510
atti 17431
Sli@@ 17232
Mem@@ 15401
pered 12301
柴@@ 32044
mainstreaming 20273
剥@@ 30910
Θ 32045
liberalism 21397
regime 2585
蓝@@ 34296
ἄ@@ 33047
Revolu@@ 18849
when 83
ั 30354
setting 1662
LT@@ 17171
doorstep 17869
papers 6221
ズ 31775
erosion 17005
picture 1042
ـ@@ 30313
refus@@ 28092
tasteful 21667
fic@@ 7000
fit@@ 12537
football 3258
wners 21724
Color@@ 8726
elo@@ 14695
ἦ@@ 33048
Autonomous 22293
missible 26723
AKVIS 20618
፣ 31555
健 33049
Wid@@ 20839
1800 14633
vigorously 18471
Fach@@ 26225
惰@@ 34297
François 16856
brow@@ 23730
rol 11973
rom 18986
ron 6778
comprehen@@ 15089
rod 14949
sten@@ 7956
incorporation 18285
ror 18144
ros 12660
rot 15902
.00 5656
row 3694
屋@@ 31556
clarification 12247
beste 29542
passage 7701
‰ 29759
ҳ 33050
STRÖ@@ 28958
理@@ 30370
Krem@@ 28386
frequencies 17206
emphasizes 18472
English-@@ 19109
Tsunami 27835
tanks 9537
Et@@ 23348
tgen@@ 27657
emphasized 10719
Verla@@ 29644
Bra@@ 4043
clouds 7278
impressive 3751
level 359
Liber@@ 11968
posts 2161
standards 1135
Accounts 25328
lever 16874
EH@@ 17863
horizont@@ 23546
Novo 25570
pork 16510
小@@ 30285
tougher 15525
trend 4024
fan@@ 4952
15,@@ 8006
Nova 18025
殻@@ 33051
Rotar@@ 27536
ฟ@@ 32046
CNS 19843
Fein@@ 24179
port 1896
fas@@ 12983
disadvantaged 12892
goed 25179
术@@ 32513
Ś@@ 26814
goes 1706
仪@@ 34298
ŝ@@ 31150
gedly 29013
Stand@@ 22766
Ί@@ 34299
Mainz 20191
ong@@ 6980
Fischer 15384
boast 15581
疼@@ 34300
rethink 20244
Spring@@ 18860
ushi@@ 27880
Francesco 19288
es@@ 699
否@@ 30986
ҫ@@ 34301
som@@ 8402
bequ@@ 24353
problematic 12151
bleibt 29792
Languages 22505
dimen@@ 28414
บ 30523
crisis 801
radio@@ 15652
helpf@@ 24857
ando 12370
ande 23682
anda 6574
Nikon 15704
upheld 16491
web@@ 4582
andt 18721
today 284
chapter 5296
These 11990
maximise 19989
パ 32047
attained 16704
manoeu@@ 22476
cases 937
Antwerpen 29667
Charter 5812
ular@@ 22209
ボ@@ 31054
un@@ 226
usability 20124
ihre 27464
儀@@ 33052
і@@ 22188
figure 2321
Integration 17722
geous 27679
RIF@@ 29797
ي@@ 26734
愛 31776
above-@@ 21910
vital 2982
fourth 2959
Demand 22736
VPN 20619
Opera 6580
지 34302
ỹ@@ 31263
Administr@@ 27715
接@@ 30987
informs 18152
Cort@@ 19915
novel@@ 13153
newcom@@ 16415
enci@@ 24271
representations 15736
ś 29510
eighth 11545
ami@@ 9221
tories 12191
inners 25036
succeeded 6479
烦 34303
activi@@ 27545
inform 3282
Hague 9948
representation 5431
alli@@ 15761
lay@@ 9805
um-@@ 10091
Compostela 23119
Fan 23737
leben 25989
risk-@@ 16987
separ@@ 8597
Higher 18429
Jury 22600
ὶ@@ 33053
Rules 5733
platform 2760
尿@@ 33054
farmer 11850
Jura 18114
ppo 18340
qualified 3531
Roma 5924
fern 28085
pps 24321
К@@ 28344
雄@@ 30783
等@@ 31264
debating 10763
Ų 30025
RATES 29972
easy-to-@@ 24504
夫@@ 30322
Sche@@ 22624
复 34304
Governance 15935
speak@@ 24194
Io@@ 9900
catching 13731
Petersburg 11359
abel 26448
羲 33055
tensions 8625
抰 34305
Ț@@ 34306
司@@ 31265
doc@@ 7879
P-@@ 10142
Samsung 10365
Felipe 21611
prise-@@ 28160
熊@@ 33056
auxili@@ 29328
11,@@ 6452
reli@@ 9892
reconci@@ 15953
shment 18255
pandemic 19632
υ@@ 25115
turn 1026
turm 28272
irregul@@ 26938
ņ@@ 29048
Pl@@ 8939
ture 4069
tura 20865
Speak 24197
não 26618
transform 9315
Lein@@ 26696
depleted 21254
Uran@@ 26146
incap@@ 24097
Lido 17439
earthqu@@ 18072
控@@ 31557
Commercial 15349
Wet@@ 25965
TC@@ 24312
orrow 24984
┴ 32048
Fisch@@ 27294
más 20682
IME 18669
IMF 6889
grund 28851
IMO 19535
Humbol@@ 21074
intu@@ 28582
Key@@ 13894
gl@@ 4053
gy@@ 6807
ḩ@@ 30524
accused 4012
cards 2702
ñ@@ 6689
Demonstration 29151
extra@@ 18045
source-@@ 23033
exchanging 17957
GMO 21885
cami@@ 27070
ﬄ@@ 34307
sciences 8254
animation 11397
HEL@@ 23828
mod@@ 11140
BA@@ 16960
surf 11054
sure 821
ͷ 34308
т@@ 11705
donation 10768
lus 18246
icon 7942
annum 21651
proud 3780
Recommendation 19596
Khar@@ 22413
eMail 26785
ADC 27796
Jel@@ 22333
drastically 17390
tron 16728
essen@@ 18415
貴@@ 33058
pursuant 7224
Research 2291
˙ 31151
spaces 3795
tros 25581
YO@@ 24285
gulf 19937
brigh@@ 14450
Saddam 12050
Expe@@ 27748
lub 26939
ss-@@ 12950
³ 16715
뀌@@ 33060
believing 11792
PRE@@ 23457
Louis 6447
Annual 6618
写@@ 33703
Maschinenbau 28988
Kali@@ 23985
л 27466
Goethe 19097
Tou@@ 18401
Marianne 24720
ム 32049
Herb@@ 26174
predicted 9797
run@@ 3667
dalena 23773
Chat@@ 24830
蘇 33062
Fuerteventura 22746
replies 16211
1920 12580
1921 17993
1922 17267
1923 16004
1924 17292
1925 16890
1926 17632
1927 18235
1928 17774
1929 15408
Kan@@ 8171
surfaces 9964
voluntary 5668
managing 4348
commitments 3970
nou@@ 16092
̵ 34309
3.7 14729
Rahmen 29077
allegations 7872
ECHO 14297
guitar 8079
bou@@ 11774
chu@@ 15881
acquiring 14476
treas@@ 11574
quiet 1925
contract 1728
kol@@ 17522
railway 3495
幕@@ 34310
brecht 23789
Michelin 22092
肉 32050
Travel 10809
period 588
insist 8201
compo@@ 10992
arium 13378
furt 19065
Turbo 22025
consultancy 12538
ɛ@@ 30286
frustr@@ 9138
direction 1834
den-@@ 17838
Ý@@ 20121
ale@@ 18349
weigh@@ 8396
spirit 2312
protocols 15363
pilot 5340
case 310
middle-@@ 12694
intelligent@@ 27212
Jad@@ 24369
depar@@ 8801
cash 2641
cast 3019
ῆ@@ 33063
Lebens@@ 27493
irrespective 10993
Open 4953
Opel 16290
서@@ 30911
Ы@@ 31152
focussed 20156
stabilising 23405
آ@@ 30125
屈@@ 33064
entu@@ 11629
ɘ@@ 34311
participant 11497
author 2355
granted 2785
ellen@@ 27733
論@@ 32514
祖@@ 33065
status 1806
ween 15883
Navi@@ 25681
风 34312
director 2005
Karas 25459
delicate 8897
statue 10835
Banks 18891
契@@ 34313
Dream 16942
relies 14430
ments 1785
茶@@ 31266
ELL@@ 21131
à-@@ 27104
without 281
socie@@ 27756
relief 5433
relied 15918
inability 13225
HAL@@ 27738
문@@ 33066
diagno@@ 8786
researchers 3366
justify 8278
Pina 27329
sequ@@ 10117
Amal@@ 21733
cease 11797
維@@ 34314
underp@@ 23913
Belgian 6587
DH@@ 17463
Municipal 21042
ሽ@@ 33067
elegan@@ 28273
lets 3565
ㄈ 33068
reformed 15665
Eich@@ 24396
ǟ@@ 33069
abli@@ 24297
Mans 20125
wol@@ 11712
Projekt@@ 29543
Ortega 23549
Leinen 25874
Repor@@ 23138
Zim@@ 21105
Mann 17847
acute 10850
parliamentarians 18495
Navig@@ 25320
inate 16716
dete 29308
Bombar@@ 26341
donations 9545
Anti@@ 7966
tower 5360
feri@@ 23726
裕@@ 31558
ผ@@ 30468
jewellery 16306
ल@@ 32051
Elles 25910
ing-@@ 2746
Ł 30592
competition 1067
Master 6107
tag@@ 8729
気 31267
ear@@ 4456
sterity 26872
T-Shir@@ 28329
auss 27425
mood 7196
ported 14251
Megapi@@ 27686
Medien@@ 28109
moon 6059
ause 11674
geable 15395
freed 14033
什 33070
istic@@ 20991
TECHN@@ 26940
slaughter 12913
GRE@@ 23199
beaches 3203
lov@@ 12251
Arm@@ 21858
discussed 2723
Boh@@ 12716
۰ 33071
Rodri@@ 15058
Thi@@ 15936
discusses 18379
lok@@ 25529
dei@@ 22852
instruments 2221
eteria 21206
flexi@@ 23173
spac@@ 6827
rising 3606
t@@ 466
tr@@ 2870
键@@ 33072
sak@@ 27625
fication 4336
钱 34315
ehr 22994
span@@ 22136
Imp@@ 22125
there 57
relocation 16511
alleged 5586
ehe 27616
KORE 25734
seven@@ 8180
cultures 5529
Salzkammergut 23245
thers 10699
tainers 22853
ended 2918
mü@@ 25277
近@@ 31428
faster 3948
LEGO 23301
wholesale 11698
Burundi 20515
flats 13479
grass 8540
Coordination 22758
as-@@ 12208
AS-@@ 27132
taste 3046
interess@@ 29133
Entwicklung 28093
ک 32052
senses 11866
tasty 11219
ampi@@ 25421
Ň 31777
Tempor@@ 29235
operation 1613
Kon@@ 7688
piracy 15970
deserve 8134
ées 12944
放@@ 31268
Dark 14725
EURO@@ 19041
先 34316
foot@@ 6705
疼 34317
immunity 12934
로@@ 31559
pillows 21560
finale 17952
神@@ 30469
Ã@@ 14425
wife 2250
wifi 22349
websites 3949
directors 7376
⁵ 34318
directory 7524
q@@ 3882
ories 5751
Dam@@ 10630
aring 6102
arina 21237
😄 34319
KAR@@ 26147
Angeli@@ 25030
Trav@@ 26727
peri@@ 14465
meditation 12996
ი@@ 30144
decisions 1542
apartment 862
द 33073
Lü@@ 17682
GEN@@ 23076
া@@ 31055
perf@@ 15207
STAT@@ 21604
matrix 18009
dairy 10185
Hôtel 18465
机 31153
Op@@ 9054
infringement 5891
Alaska 13208
deliveries 10495
treating 9629
flu@@ 5187
MENT 20727
Testing 24341
list 709
Rest 26674
ờ@@ 30557
eib@@ 24787
Carlo 15059
enden 23649
employing 16199
escalation 17563
即@@ 30852
Provin@@ 22203
入@@ 29940
translating 18438
invention 7429
Easy 21962
Loc@@ 15921
East 1318
sun 809
parall@@ 21368
sul 21078
護@@ 33074
eminent 20224
sui 23916
Ю@@ 30371
version 894
sus 9642
sur 7664
counter-@@ 10236
Hi@@ 5274
legi@@ 14786
ᒥ@@ 33075
㠠@@ 34320
compressed 15751
tragedy 7611
赶@@ 32053
击@@ 31560
Solbes 26459
naval 14558
米 32054
poche 26021
Wald@@ 22233
Veter@@ 23283
ā@@ 17644
AK@@ 12113
本@@ 29897
utilisation 16916
意@@ 30323
iden@@ 27043
empf@@ 28563
ส 30302
quasi 27846
紅@@ 32055
rustic 15908
AP-@@ 28671
distri@@ 22338
horses 6589
flat 3591
Engagement 28660
did@@ 18736
mire 25510
uphol@@ 23174
Morocco 6947
antibiotics 13644
Mass 11241
á 6789
Libyan 13555
tling 23005
ense 12702
买@@ 30355
Basque 16191
proc@@ 6263
Euro@@ 4689
slau@@ 27258
EIB-@@ 29575
Nepal 13808
Basi@@ 15116
ح@@ 29544
esz@@ 23475
You 2310
run-up 16780
Ell@@ 21620
Z@@ 949
ṳ 31269
226@@ 11185
occasionally 9676
й 13417
Hal@@ 6868
ide@@ 6428
31.@@ 4999
okay 15282
MOS@@ 25822
경 33076
tages 19340
sponsors 12466
lighting 6251
adventure 5837
ʊ@@ 31561
zir@@ 26691
concentrating 16104
proclaimed 13685
Wiki 23079
short 838
Belgrade 14982
supervision 6189
New@@ 5028
shore 7186
Democrats 3124
Campanile 25675
über@@ 21310
庫@@ 33077
码@@ 32515
pretext 15178
avenue 19137
Fauna 28845
fantas@@ 23463
3,5 17436
ካ 32056
soccer 10573
somebody 8234
policy-@@ 18631
Cohesion 13645
habitats 16843
Planet@@ 26524
Spain 1184
instructions 4974
ץ 31429
ζ@@ 29933
bedro@@ 27295
প@@ 32057
intolerable 19487
commit@@ 24085
urship 25142
weight 1463
ณ 32058
illi@@ 8336
alcohol 4569
feder@@ 11117
hydraulic 13892
hill 4924
WEN@@ 29486
thorou@@ 22593
Blin@@ 23200
报@@ 31430
角 31270
Opinion 16533
rever@@ 9743
leverage 12785
א 31056
Mill@@ 18446
tate 22915
prejudice 12612
BER@@ 18990
Byrne 19369
capit@@ 14166
fallen 5432
Blanc 19252
干@@ 32059
。 10563
tural 12469
莹@@ 32516
traveled 13749
enlarged 9644
Indian 4261
Axel 22805
story 1633
" 20
automobile 10930
interviews 8273
Nag@@ 16178
storm 6074
戶 34322
KOM@@ 27117
store 2341
Archer 20997
A380 23184
daten@@ 29158
up-@@ 15062
king 1284
kind 812
direkt 27413
ckers 12828
Chri@@ 20983
atom@@ 23201
kins 9269
scanners 19720
dried 12123
motivation 9143
exert 15805
dedic@@ 15283
Kast@@ 25125
owski 21023
steht 28189
transi@@ 11513
Mar@@ 1275
Iceland 8453
tired 8521
entirety 14399
ດ@@ 32060
genetically 11568
ING@@ 17804
destruc@@ 25621
electric 3642
customize 19233
aman 19751
Equal 19643
architects 9968
cab@@ 7996
amas 19780
gilt 27885
巻@@ 31778
spiel@@ 19501
ǒ@@ 32061
dealers 10212
ran@@ 3852
recht@@ 28025
CL@@ 8999
Aren@@ 22990
Ign@@ 19703
traditional 1304
F@@ 460
Wur@@ 22782
lying 5841
unserer 27765
BE 15117
Profit 26924
紂 33078
Sulzer 25105
Whiteh@@ 23109
整@@ 30988
Suite 9683
unserem 29060
unseren 29061
₣ 32062
BB 21106
Gron@@ 23563
ദ 33079
iti@@ 13673
ies 2882
ier 8829
iet 19932
Sub@@ 7363
iel 14070
ien 22922
노@@ 33081
ied 28401
Rapporteur 23437
Jason 12561
cott 14194
什@@ 30425
triangle 18336
cots 19877
字@@ 30989
transpar@@ 22378
C@@ 374
landscap@@ 14420
emails 10467
contextual 11186
chner 20372
ma@@ 1055
Bene@@ 8832
McCoy 23355
CITES 25139
wrote 2350
pom@@ 18786
Whitehead 25571
plug@@ 15835
aan 14334
acces@@ 23385
Ћ 30170
憎 33082
defense 4444
chambers 12295
ingo 12530
threats 4478
underpinning 23696
inge 24173
pass@@ 9096
19-@@ 7343
BY 20098
ings 994
urch 27226
solo 8246
soll 28236
sold 2469
zy@@ 10226
Manual 21564
ǎ 31271
ヘ 32063
ầ@@ 30913
ing- 24649
sv@@ 21871
rein@@ 16678
SA.@@ 26659
ø 19038
plur@@ 18060
assault 7967
distress 13651
sweet 5121
harbour 7210
regulated 7095
village 1580
apers 27203
stadt@@ 27306
Ibrahim 20871
鳩@@ 33083
眼@@ 31562
ັ@@ 31563
ぎ 32064
Club@@ 26198
l.@@ 12830
flight 2410
data-@@ 18577
precision 7715
소 34323
demand 1190
instructor 16753
Stres@@ 29627
50@@ 1105
frozen 9760
Dav@@ 21422
艺 34324
lü@@ 29545
Media@@ 23300
audio-@@ 27877
ꞌ 32517
Tenn@@ 13583
Automob@@ 24683
demos 22287
obstacle 11387
shirt 9786
compuls@@ 29594
shire 7381
Adventure 20832
9 202
Directory 23479
prerequisite 11986
higher 1094
wah@@ 27058
restraint 16196
cement 8637
liquids 19920
contractors 12162
ession 8004
GL@@ 19978
Miller 10471
zna@@ 24696
Zend 24388
Socialists 8393
historic 2137
machinery 6507
Orchester 28743
emerge 8608
entives 28617
,@@ 4518
questions 875
replic@@ 14027
continent 4971
finden 26568
Nokia 12736
5,5 23053
Ĕ@@ 33084
findet 28065
ົ 33085
finder 21272
geschichte 29173
ỏ@@ 33086
Trans@@ 10156
discriminatory 17584
ghtseeing 29511
Brah@@ 21174
Riva 22830
邑 33087
systematically 10838
admittedly 16020
ワ 33088
separately 8210
collect 4711
exploiting 17478
崎@@ 30618
Liz@@ 26888
issu@@ 11931
Prosecutor 15588
tionally 9028
controllers 16687
trans-European 14311
ried 18880
rier 23080
ries 8534
weal@@ 20683
ex@@ 1901
feeding@@ 25207
refused 4814
Bibione 21675
refuses 15284
Stö@@ 28558
vaccine 12941
pipeline 6985
cautious 13157
Rom 21195
Ron 15256
kitchenette 9195
体 30372
Roy 16522
range 653
за@@ 23990
complimentary 9334
fast@@ 7144
fleets 17359
stence 16380
Business@@ 26675
impressed 8380
rows 9091
entitlement 19529
question 500
long 336
annulment 23677
etch 15321
Mä@@ 29185
Oz@@ 26585
Fer@@ 5823
Aktiengesellschaft 25129
................................@@ 27695
invo@@ 12475
BOR@@ 21676
Franklin 16776
Ashton 13076
ture@@ 21014
▒ 30128
campaign@@ 10655
ands 6313
ment-@@ 7865
fluctuations 15562
etc. 10796
Kir@@ 8580
Saxony 16063
esch 25460
ungalow 16636
و@@ 27153
esco 16624
coordinator 14850
escu 22750
보@@ 32065
rally 9395
fore@@ 5122
Bres@@ 20554
peace 1052
Jorge 20291
backs 7131
nick 21766
90@@ 2317
蔣@@ 33089
nica 19752
pá@@ 25995
nice 1505
Audit 17527
Civi@@ 17523
Inhalt 29502
TNG 18276
para@@ 21406
allowing 2958
beauti@@ 22641
posters 13842
Audio 16098
ges@@ 5038
hosp@@ 11604
gression 12182
departments 7342
eEurope 26700
vocally 22097
gans 15957
Forex 23749
ganz 27227
Basel 7877
倹@@ 34158
alien 13839
伐@@ 34325
uner 25870
gang 11419
flori@@ 26679
winds 8622
ка 26995
gano 23955
swe@@ 3302
uphold 15666
PN@@ 18830
languages 2273
hing@@ 21365
breach 7225
include 767
itly 21218
confirmation 4986
mainstream 11343
归@@ 34326
P 1251
Laz@@ 17819
､ 32066
Family 6504
zeit 17018
unit@@ 19984
Lag@@ 13512
INTERNAT@@ 25883
unic@@ 18240
kle@@ 23511
friendliness 16790
Telecommunications 22767
仕@@ 33091
eding 13725
丰@@ 34327
Corbett 22409
cofinancing 21814
acio 24185
fold 6809
Contin@@ 23275
concludes 10436
acid 8435
makers 3863
folk 7806
Ҡ@@ 31564
showcase 8452
concessions 11631
dass 20624
19th 3336
lette 12519
Fuerte 25208
follow@@ 21575
Former 18162
Rohr@@ 28402
22@@ 3854
ｅ 33092
chose 6018
degree 2206
哈 33093
encies 15585
youngest 11648
explore 3603
ː@@ 30208
월 31154
ك 29964
Croatian 9941
settling 16122
It@@ 24397
Nikol@@ 16578
Schw@@ 20785
shades 15644
esque 18399
leaving 3025
harmonisation 8064
Palm 16534
Premiere 25996
SIN@@ 25997
IN@@ 4161
prec@@ 14911
岡@@ 33094
up-to-date 8694
厂@@ 31057
duct 23692
aps 12858
app 5998
voli 23541
apt 19236
Veneti@@ 26581
teness 24384
compan@@ 22847
duce 16410
hardt 20289
near@@ 18949
from 30
̇ 33095
farm@@ 16988
ت 29583
group@@ 11127
examination 4494
destabili@@ 14986
clever 13592
SITE 23427
link@@ 15931
Guy 19602
楠 32067
೯@@ 32068
ast-@@ 15574
Hilfe 28906
Wiener 22667
ing.com 8377
Science 4431
吉 31565
健@@ 30593
← 29453
assumptions 14047
中@@ 29645
Australian 4097
Scheme 21256
ys@@ 9386
NAFO 26175
stri@@ 3074
mid-term 17437
芽@@ 34328
ტ@@ 30619
夫 31780
justifiable 20526
Leb@@ 25303
struggles 11299
Schnee@@ 29159
记@@ 31155
schol@@ 14946
ㄆ@@ 33096
ת@@ 30339
ั@@ 29584
皇@@ 31272
Ass@@ 9320
attend 4857
ҳ@@ 33097
Catto@@ 26714
ingrad 25627
odynam@@ 21878
Image@@ 24576
Gä@@ 28625
DEV@@ 25484
villas 10260
certain@@ 22118
Kings 13419
板 33098
Stakehol@@ 29427
κ@@ 22304
interpreted 8957
Α 29891
whilst 4183
interpreter 18679
خ@@ 29721
superior 6202
Cecilia 23754
Pav@@ 18260
菩@@ 33099
holiday 1319
gler 22911
爱@@ 30303
Tickets 25572
imper@@ 19274
COUNCIL 19305
ў@@ 30784
ambition 9099
tance 14198
SME@@ 29618
ბ@@ 30470
gies 11754
AUS@@ 25594
successor 10180
articles 3322
edit 6329
bilater@@ 26781
year-@@ 7398
edia 21749
Nov@@ 5165
೬@@ 33100
oul 15466
클@@ 33101
oud 10963
Mach@@ 11843
ous 1182
our 44
out 86
支@@ 30681
Frontera 22682
blues 16905
ཚ@@ 33102
chaos 9795
Office 2184
IDA 25656
Ľ 30721
kk@@ 20295
disclose 11589
enforce@@ 28237
spectac@@ 21788
線 30648
insisted 8764
organic 4522
g 488
Milit@@ 28181
Dayton 21752
film@@ 9586
Hyde 18987
hence 4595
South-@@ 22108
ﬀ 31781
Belfast 17462
約 33103
symp@@ 10928
‒ 24324
↧ 33104
For@@ 3783
unknown 5541
priority 1874
1500 10007
650 9087
bundling 23647
Mi@@ 2668
Soli@@ 17731
Heli@@ 20593
tedly 14817
310 11947
Database 23015
Constitu@@ 24760
diminish 20347
cor.europa.eu 28974
Lager 29558
你@@ 28661
liquid 7136
۩ 32069
Peter 2654
TV@@ 20298
Diego 8286
clip 14174
Anton 17701
teenagers 13059
ъ@@ 28010
lässt 29568
Woo@@ 11579
linked 2468
arest 21383
pupils 8927
dg@@ 16498
secre@@ 12931
頭 31782
ደ@@ 33105
cover@@ 12707
KAL@@ 27881
fortable 29284
九@@ 31156
ist@@ 7626
collaboration 3879
who 66
werke 25682
kom@@ 15723
Panels 29169
覧@@ 33106
why 435
Grand@@ 20829
.ht@@ 23796
Actions 25819
pipe 10491
phal@@ 28161
衣@@ 33107
Croatia 3793
dijk 20225
境 31566
Est@@ 13920
agreed 1428
chapters 12215
Chemical 19261
utter 8787
fear 2309
agrees 8412
culp@@ 19735
litigation 16742
Nick@@ 20915
local 501
Areas 24211
GPL 23478
monuments 7625
massacre 14793
coordinating 13330
饮@@ 33108
GPS 7811
Mittern@@ 29809
rison 10290
ק 30914
pover@@ 26298
differential 19571
￭ 33109
ex-@@ 8546
ITER 25167
avoidable 26652
ascertain 20157
ే@@ 33110
Neighbourhood 15011
knowing 5581
requirement 4585
........@@ 23991
stries 15330
ત 33111
Laeken 20765
seafarers 23986
cruel 14879
Cadiz 20898
identification 6472
crude 10577
畿@@ 33112
right-@@ 11272
jos 24032
720 16106
los@@ 6915
joy 4468
heada@@ 14013
Democrat 9897
job 1126
takeover 12554
illon 22902
slow@@ 9319
jon 22506
Ò@@ 27990
respondents 13538
sinn@@ 21018
tactical 17751
挑@@ 31783
extremi@@ 27773
grounds 3093
unclear 9769
isse@@ 26013
environments 8429
inver@@ 17143
ell-@@ 19465
Pur@@ 11262
v.@@ 13345
decent 8691
trademark 9151
responds 16735
ο 27034
remedies 16212
ICH@@ 24506
bedded 23223
IES 13423
Serbs 19414
foun@@ 20405
scrutiny 10201
dev@@ 12885
ensuring 2861
IEN 29322
Nach@@ 21927
Neil 13750
IEC 21458
VA@@ 25037
Milosevic 18243
refra@@ 18601
stunning 5985
into@@ 27945
medicinal 11961
Jörg 22414
Hous@@ 18506
forti@@ 11328
Mund@@ 27362
thus 778
Cagli@@ 20900
anxi@@ 26639
lightweight 14147
어 30501
Ou@@ 13192
MARK@@ 28243
Rimini 19370
sowie 25763
perhaps 1426
Cat@@ 9685
行@@ 30356
Fla@@ 16371
largest 1244
Ehr@@ 24778
difficult 923
Transpor@@ 15536
slave 12036
Süd@@ 22587
Dau@@ 19200
conceived 10411
disagree 12640
folio 29264
題 31784
azzo 26268
ting@@ 21273
糖 34329
warming 7192
majest@@ 25461
undertakes 19172
vi@@ 840
ultra@@ 12316
Rome 2587
FIN-@@ 29998
undertaken 6194
personalised 16841
excessive 5531
Palat@@ 20769
21000 26490
事 31157
Doma@@ 24442
tch 13719
Nicholas 15706
Aus@@ 7658
sim@@ 17674
impor@@ 21366
ticism 12765
ర@@ 33113
usage 6149
Kre@@ 12897
gute 27967
stakeholders 6833
struc@@ 13737
Hea@@ 11569
provisions 2071
г@@ 19341
execute 11695
责@@ 32519
联 32070
facial 15268
press 1014
Ethernet 18551
name 493
Vila 22035
day-@@ 13404
anti-S@@ 16852
hosts 6095
miner@@ 23738
Nurem@@ 29628
mir@@ 13600
wonders 12374
exceed 7668
Era@@ 23940
smoothly 12769
Sun 1369
Card@@ 24949
5,00 16697
Suu 19721
employment 1282
Die@@ 19113
At@@ 7276
钢@@ 33114
Ai@@ 10805
Ḥ@@ 30853
Dollars 25010
Hoch@@ 21423
村 31158
pasta 13906
Stockhol@@ 29196
Mobili@@ 29014
paste 15108
드 33115
kor@@ 17765
ashi 20439
asha 20274
ori@@ 2965
carries 8271
carrier 8163
Americans 3468
.html 4660
展@@ 31785
outset 10631
wilderness 10806
Mess@@ 12819
öl 29128
ön 28130
agre@@ 18496
ör 27555
weather 2260
promise 4785
lawful 18971
utt@@ 16374
Finance 5639
transfer 1826
pleas@@ 10085
Isch@@ 25357
spiral 15261
minster 14699
ћ@@ 31567
Markt@@ 28114
Champions 12951
庆@@ 30990
辛 32274
volume 2839
automated 8843
Consumer 7240
per@@ 1527
♦ 30038
Britain 2368
rectan@@ 17507
nah@@ 20568
Card 7774
cake 9510
ث@@ 30171
Eli@@ 8200
cel@@ 5305
innerhalb 28917
Hai@@ 12200
ἑ@@ 33116
焼@@ 31058
Represent@@ 24932
incredible 6752
Ψ 32520
 30324
Lufthansa 14613
drome 12078
incredibly 10257
落 33117
引@@ 30785
conclusion 2761
agle 27652
kinds 3507
ciples 8082
集 32521
96-@@ 21576
Future 9937
pumps 12449
cliff 15090
auxiliary 14671
ah@@ 4092
Mensch 28852
flat@@ 12704
Site 6327
Automati@@ 25628
ふ 33118
海 30620
隨 34330
tonnes 6516
Champ@@ 22455
YORK 10920
curren@@ 13665
1,8 21060
1,9 21284
1,6 15510
1,7 22051
1,4 20849
1,5 11467
1,2 19011
1,3 19860
yellow 5569
1,1 19960
Abbas 14488
̂ 31786
an-@@ 4802
electricity 2847
Supp@@ 14406
list@@ 22165
Sprache 28747
Abru@@ 24877
Efficiency 22155
前@@ 30325
Ex-@@ 26396
SA@@ 5499
线 32522
ßen 26556
談 32523
regional 1158
dell 14133
promin@@ 17240
ȯ@@ 32524
Ivoire 28646
discour@@ 16019
sur@@ 2397
prize 4596
haber 28772
haben 21299
specialties 15296
sum@@ 22699
succession 13402
解@@ 30409
provided 733
reliable 3102
జ@@ 33119
已@@ 30447
charter 9474
Merlin 24063
infringed 21565
WEI@@ 25638
BER 24861
➚ 33120
andro 19331
lus@@ 21425
Panoram@@ 27283
φ 30209
尾@@ 31787
掛@@ 33121
increasing 1586
Presidential 20391
dort 28360
ло@@ 23868
dors 29309
Church 1880
Budget 9538
dore 28115
34@@ 2898
dorf 8969
pro@@ 841
ements 13506
itiner@@ 20538
Й@@ 30682
substance 5375
39@@ 2722
consu@@ 11276
Hamas 6005
Mond@@ 28054
writ@@ 10572
NOT 12462
military 1048
Alternative 23438
Ericsson 22400
Ἱ@@ 33122
divide 9400
unci@@ 24626
ó@@ 5870
explained 3650
Kore@@ 20607
cam@@ 5711
┘ 31273
Toler@@ 28935
php@@ 22535
赛@@ 31788
spoke 3527
cap@@ 3217
rac@@ 6508
customer-@@ 19107
ptions 14527
Tuni@@ 27259
Ate@@ 26190
relay 18505
relax 2817
successful 1335
benefiting 15294
hurt 7385
Automobil@@ 28679
telefon@@ 28352
ช@@ 30314
張@@ 31274
-up 4594
blade 17086
Ņ@@ 29862
co-decision 22916
順 33123
発 32525
节 32526
TER@@ 7905
設@@ 31431
prejudi@@ 18686
场@@ 30426
household 6361
滴@@ 34331
organized 3704
aux@@ 25797
Squ@@ 16222
Brian 9634
geben 26191
Bike 20383
Holding 12633
Gel@@ 19262
으@@ 31789
preferably 16411
Eagle 20158
橘@@ 34332
த@@ 33124
damage 1761
machine 1786
র 31275
methodology 12799
आ@@ 32071
E-@@ 6541
preferable 20320
gaming 9499
modulation 22089
connects 12250
shores 12412
alling 12597
destined 13082
胖 32072
ème 18625
Sanc@@ 19729
effective 1085
Lo@@ 2197
äch@@ 23906
wins 6975
attracts 13704
PNR 23006
Serbia 5661
signatories 21274
chert 26898
splatz 26426
chers 10008
keeps 6379
ghton 15913
wing 3120
wind 1191
wine 1701
Monterrey 24359
restriction 10611
Є 31790
vary 6323
vard 27792
ensation 23902
chro@@ 13211
atyp@@ 24347
那 33125
閥 33126
300@@ 5485
ech@@ 12467
ா@@ 32073
Ѕ@@ 31059
Harris 12436
Südtirol 29010
hidden 4726
enrich 18247
с@@ 10414
ca@@ 2626
属@@ 31791
Volvo 20310
Etrus@@ 22226
Cards 19371
porte@@ 8949
silver 4957
ص@@ 29920
structural 2849
represents 2699
acity 13396
APS 26737
Functional 25263
API 16433
凡@@ 34333
ᓕ@@ 33127
expectancy 17238
preceded 17030
financial 388
Dortmund 16512
displacement 19901
solution 1020
Lul@@ 22668
laboratory 7181
auth@@ 17257
diction 16226
坚@@ 32074
¬ 23502
貰@@ 33128
ı@@ 16834
า@@ 28884
Techni@@ 21377
assured 7839
University 945
ヌ 33129
እ@@ 31568
erten 25363
ertes 29729
ian 4255
sensors 9976
district 2545
epidemi@@ 21512
Horn 18767
Human 3613
住 34334
好 30991
享@@ 32075
̀ 31276
demago@@ 24266
ʺ@@ 32527
Please 12628
wash 8960
vibr@@ 14093
179 14329
wasn 3563
177 13887
176 13302
175 9201
für 5626
173 14934
172 11730
171 13178
170 7359
Website 8494
contribu@@ 28939
ThyssenKrupp 21641
engagement 7685
returns 5618
listed 2532
descrip@@ 26347
legs 7018
listen 3633
ganze 29480
collapse 5958
wisdom 7109
ß@@ 9930
ť@@ 29481
⇗ 31569
≥ 29160
sulphur 19861
Cle@@ 7175
phra@@ 21033
sures 17921
Tit@@ 12252
book@@ 5525
seminars 8327
融@@ 31432
Knei@@ 26883
Angelo 21214
entail 16829
」 30502
Angela 12841
Bre@@ 4965
Э@@ 30013
Williams 6724
说 31060
concrete 2946
謝 32528
responsible 1016
eler 22707
Bes@@ 16129
Bed@@ 10829
Band 16557
causing 5477
02@@ 6163
responsibly 18293
ри@@ 24303
Bank 1227
Prac@@ 22373
even 167
post@@ 4270
問 32529
letter 2378
retaining 16573
drought 13556
짜 30992
morality 17138
episode 7708
antitrust 19098
professor 6036
prisons 14646
fast-@@ 11410
Client 12984
酷 34335
bles@@ 12527
advisory 9415
bomb 7662
reactor 17108
ects 17123
Sky@@ 10135
nominated 9576
gauge 16558
asia 19469
ру@@ 26518
copy 3520
RSS-@@ 29607
ment 1378
menu 2825
mens 14042
theme 3840
meno 25321
Spr@@ 15050
sien 27014
thema 26255
spor@@ 9791
revo@@ 14950
Fah@@ 26511
Miss@@ 27180
import@@ 18665
ATION@@ 29646
Tre@@ 5996
癌 33131
gra@@ 1803
reversal 19142
Over@@ 12881
sers 6884
Gu@@ 2866
ֶ@@ 33132
asis 24622
GF@@ 18950
respond 3136
mandatory 7496
disaster 4467
fair 1618
bler 23224
seem@@ 22854
у 23154
bled 13612
Magaz@@ 29164
fail 4541
best 313
O2 22427
high@@ 5791
score 4619
ג 31061
thop@@ 28238
conceptual 16029
华@@ 30915
preserve 6088
Settings 21577
sera 23257
felong 26499
carbon 3888
rück@@ 29211
gle@@ 8051
尋@@ 33133
adapter 18430
conclusions 3298
adventures 13507
PSE 15797
격@@ 33134
requ@@ 26063
dents 10855
Logo 26249
PSP 22970
adapted 5410
hibit 24118
tares 27187
ई 33135
vain 13964
mail-@@ 25540
cre@@ 2636
258 13303
xity 27454
250 3149
251 14808
256 13368
献@@ 33136
254 15158
255 12400
v@@ 587
chrome 20925
criticised 11438
extraction 13652
Inv@@ 17568
了@@ 30090
拿@@ 31792
馆@@ 31793
invent@@ 11746
life 283
Poland 2284
road@@ 10291
营@@ 34336
conflic@@ 23838
comprehensible 21326
lift 4064
Wei@@ 6173
child 1245
arians 11525
chill 20626
ĺ 34337
presidency 4323
Ě@@ 30471
inated 12962
麗 33137
遠@@ 31277
寿 33138
rent 2335
∅ 33139
s@@ 345
Co-@@ 18439
ven@@ 2141
Capital 5857
trusted 12015
fotos 26793
Kraft@@ 28204
cumulative 21175
babies 10598
chocol@@ 22657
Kli@@ 18383
蛋 34338
fairly 5723
w-@@ 4977
Angeles 4152
Peking 25609
አ@@ 32076
Aachen 18906
躊@@ 33140
ler@@ 6016
registering 16406
顾@@ 31433
Å@@ 18778
appro@@ 14761
柔@@ 32530
Scan@@ 26043
opinions 4780
ペ@@ 31159
計 33141
Schauspiel@@ 28737
financially 11487
七@@ 32531
plight 19965
ctic 18881
疯@@ 34339
ლ@@ 30178
2014-@@ 10791
Framework 5590
glas@@ 24505
collections 7756
celeb@@ 7931
ง@@ 29694
doctr@@ 23175
Ж@@ 30357
possible 272
须@@ 30916
possibly 4182
pei@@ 25369
Audi@@ 16970
birth 2581
Emilia 23094
unique 1225
Aber@@ 14265
Scher@@ 24779
Zürich 17796
seaside 10489
据 34340
steps 1609
Migration 19923
diagnosti@@ 16957
admini@@ 22879
OD 22774
people 92
年@@ 30320
cyni@@ 18365
折 33142
for 13
metall@@ 23422
fox 21398
Fest 26610
uma 17324
Armenia 14857
fon 25161
arbeiten 28989
dental 7894
藻@@ 34341
shifting 13091
번 33321
nom@@ 6160
ֵ@@ 32077
15.000 27797
technologie 29279
dollars 3499
citizens 731
Kimber@@ 24272
despair 15858
惕@@ 34342
um- 25485
chte 23338
27@@ 1081
chts 27640
Castell@@ 19195
bo@@ 771
reducing 3137
methods 2169
unambiguous 20969
am@@ 816
Ali 9593
panorama 11824
halle 25622
ellow 22032
width 3744
halls 9955
happy 1440
schrift 15609
manufacturers 3369
ሥ@@ 33144
步@@ 33145
circ@@ 14703
skap@@ 28672
stret@@ 25226
昌@@ 33130
Engineering 8882
pest 22415
lays 11798
palm 10527
panels 7988
feet 2938
later 712
proved 4146
ʁ@@ 31434
tournament 5267
proven 4817
Da@@ 6400
proves 10383
exist 2666
accounting 5764
dealer 9468
supporters 5446
嚴@@ 32078
Androulla 26119
Ruh@@ 28706
actor 5762
ij@@ 22739
republic 14628
developers 6218
Bach@@ 20118
eti@@ 9447
ف 30092
ው 31570
b.@@ 14454
DES@@ 10202
任@@ 30722
DE-@@ 28143
invested 7226
persecution 10927
van@@ 4491
Ú 29844
DEBATE 26468
错@@ 32079
Mon@@ 2055
寨 34343
D-@@ 7185
ʌ@@ 31571
長 32080
buil@@ 7191
图 30103
dialo@@ 25146
Reporting 23232
Pas@@ 6466
音@@ 30786
Indians 15781
Bos@@ 21008
ج@@ 29181
sollte 28652
gloss@@ 19452
2000-2006 22925
autonom@@ 24316
vet 13706
ver 2428
ves 1384
Verona 15937
tar@@ 5850
vez 13001
vey 16698
ved 3182
ven 4204
vel 7722
yers 4931
Vol@@ 6485
Tyrolean 17175
cheap 4003
穌 34344
servicing 18049
ც@@ 31278
gun@@ 7549
tear 12494
龙@@ 32081
teau 20008
solved 6573
subway 11592
team 649
Guar@@ 21215
prevent 1629
cum@@ 16146
spect@@ 22963
chem@@ 8186
ḑ@@ 30558
ta@@ 1250
ﺤ 32082
cleanliness 17198
suici@@ 21477
current 533
tiful 19332
bein@@ 27878
UNION 17373
bil@@ 6963
persecuted 16885
Warner 13792
Train@@ 26941
RWE 25470
studied 4693
wherever 6576
commonly 8099
aparta@@ 25911
ৰ@@ 33147
更 33148
Preis 25073
studies 2061
払@@ 31572
alter@@ 10412
love 797
set@@ 8150
壳@@ 33149
EUROP@@ 25024
bloody 13536
Friedrich 15415
COST 27739
Alberto 20204
Simp@@ 18261
forefront 13658
positive 1189
Berlin-@@ 22642
Norman@@ 28353
wondering 8754
kasse 27519
Viennese 18517
跃 34345
TN@@ 17675
afford 6037
TY@@ 24374
apparent 6111
`s 15812
visual 5251
续@@ 31573
mi@@ 2124
easiest 14601
behalf 1453
involve 4890
valued 9598
modernised 23088
symb@@ 29040
believes 4093
ñ 24273
陰@@ 33150
values 1695
believed 3630
Our 5480
Out 12426
ppers 10363
hen@@ 14380
Federal 1863
H@@ 412
Hyper@@ 23689
Beau@@ 13718
土@@ 31160
ɵ@@ 33151
agendas 22396
winter 2068
water-@@ 15655
Who 9181
ư 33152
parameter 12308
Why 13253
five-year 14690
jazz 8915
щ 30448
spot 3228
applications 1475
dato 28165
Tal@@ 8110
date 443
救@@ 31794
data 348
embo@@ 12403
sofort 29389
sectors 2271
Wor@@ 9952
象@@ 32533
applicant 6022
11.30 22043
ind@@ 18680
definitions 13086
缸@@ 34346
ext@@ 23731
satz 28378
FO@@ 14555
unacceptable 5037
mul@@ 3627
hiring 13656
negoti@@ 18491
Lop@@ 17008
Shops 23922
Music@@ 25900
brut@@ 14867
Wilhel@@ 24715
Bjerregaard 27605
ヌ@@ 33153
attraction 8680
Dezember 22146
creations 16754
Share@@ 17377
paraly@@ 13319
decades 2750
petition 11865
话@@ 34347
reveal 7143
matches 6888
Ank@@ 28379
Socialist 7028
Maximum 24610
发 32534
records 4289
Langen 25231
strust 17252
arriving 7731
Saf@@ 14163
matched 10831
囧 34068
ص 33154
Sai@@ 22006
E@@ 444
Treaties 9519
Warcraft 15040
Wave@@ 26373
✉ 33155
revised 6798
ton-@@ 21132
bovine 24650
breakthrough 11751
평@@ 34348
ation@@ 3853
estas 23522
WE 22898
ڠ@@ 33156
Deb@@ 10022
ein-@@ 24639
Emission 27562
contained 3647
bek@@ 27992
Joe 6747
Midd@@ 17515
失@@ 31574
short-@@ 10230
bordering 18482
million 301
possibility 1610
六@@ 30993
肥 31161
transpor@@ 16590
Money 16492
Z 4122
tasting 12542
invest@@ 21508
Termini 21928
ANDER@@ 29943
Blanca 20420
ha-@@ 23785
ט 30249
vote 856
Baby@@ 27444
esi@@ 18168
impul@@ 9074
ા@@ 33157
indicate 5329
2 64
typing 18386
ま@@ 30018
face-@@ 18065
floppy 22052
Moz@@ 25462
９@@ 33158
ста@@ 26628
Alm 26760
ables 6903
友@@ 30723
representing 5714
stle 12759
ContiTech 22175
rival 8528
Titan 12114
男@@ 33159
exhibitors 9121
jur@@ 14588
Hut 27087
Analytics 16403
future 365
schla@@ 27864
ỹ 33160
stly 16235
neu@@ 18183
prospect 7184
disgu@@ 12321
considerably 5589
Farben 28820
Sites 21124
tastes 11576
NX-@@ 27231
3,@@ 2404
Globalisation 19263
PAP@@ 26015
restra@@ 13537
Hes@@ 23892
Jewish 3697
take 159
split@@ 20521
1@@ 567
ല@@ 33161
altered 11725
of@@ 12935
han@@ 5055
発@@ 33162
ter-@@ 8503
22.@@ 4298
imit@@ 17936
Festivals 25471
Trainer 26398
Portuguese 4670
axy 20209
infections 9170
federal 2689
archy 13928
mand@@ 9273
Strip 9458
operations 1980
walking 2182
surplus 8388
scrut@@ 24317
far-reaching 12953
unspo@@ 23066
園 32535
Yan@@ 9744
.@@ 208
fibre 14325
atri@@ 10193
fra@@ 4126
readmission 21921
稅@@ 33163
hockey 14140
equipped 1358
ima@@ 4250
18@@ 518
罗@@ 32083
დ 33164
Products 8983
Opportunities 19372
Physi@@ 14397
Kno@@ 11814
Merco@@ 29952
误@@ 34349
啦 31062
agr@@ 20392
sollten 29459
Masch@@ 27716
bombs 11376
liable 6175
Famili@@ 17058
spic@@ 13816
16th 4609
流 34350
边@@ 32084
Eco@@ 17732
cin 23588
atile 29727
surgery 5077
ur 5294
dives 16353
振@@ 32085
Bug@@ 19760
theast 7615
affecting 7449
Bible 6100
Gör@@ 25539
屋 30994
supermarket 10238
2001-@@ 20019
Directors 8510
jets 17219
ark@@ 5760
undermine 9827
MPEG 25329
ation-@@ 9835
life-@@ 9450
expression 3460
ﺍ 33165
ants 2072
bril@@ 22601
twin 7709
anti 16930
buff@@ 11909
ante 9599
centralised 20231
lli@@ 16267
maj@@ 12813
äm@@ 27260
combines 7338
may@@ 11767
immobili@@ 13689
vacation 3890
breath 9017
ae@@ 11202
Schweizer 28225
combined 2752
renewables 17119
傲@@ 34351
Riv@@ 26761
influence 2049
thousand 3293
Rotary 10887
antivirus 22935
European-@@ 22357
Davies 17600
意 31162
Wander@@ 24817
poly@@ 5320
Cir@@ 7202
Ch@@ 2069
ook 21700
multi-annual 23797
空 32536
 30917
JHA 26044
ensem@@ 19792
wie@@ 22580
後 34352
ע@@ 29865
ambient 16298
微@@ 31575
Gab@@ 14563
Catal@@ 19990
breakdown 12336
Ze@@ 15578
I 29
conci@@ 20911
ilation 29078
が 31435
allocation 7765
Iron 14434
ɔ@@ 31576
proje@@ 26619
thcare 21647
ど 33166
costs 774
trains 6357
remin@@ 24318
genic 13092
addi@@ 15444
alcoholi@@ 24862
Daniel 5758
န 33167
non-binding 21165
Old@@ 24038
Markets 13444
underline 12108
weekly 6783
anc@@ 7032
Ras@@ 14933
onda 23358
Ral@@ 13784
refresh@@ 15817
Decision 7922
skies 16650
SVN 26569
z.@@ 14619
por 9500
ị 31436
neuen 27749
neuer 29350
neues 29468
Mont 18972
6. 24950
着 34353
satisfaction 4530
詠@@ 32086
Param@@ 27793
poo 22923
62 2156
ǵ 32087
clay 12473
tur@@ 2433
grouping 21579
gesch@@ 19466
鉴@@ 34354
ret@@ 6995
lé@@ 22147
racial 11290
存@@ 30918
thinks 7591
motiv@@ 10682
lä@@ 19112
dimensions 4207
Wis@@ 9758
Ｉ@@ 32088
紂@@ 32089
12.@@ 857
oblige 22096
DON@@ 27511
Projects 21219
Win@@ 5368
accessing 14018
э 30621
ration 13246
sprung 24772
пре@@ 27250
standpoint 17239
桶@@ 34355
aca 15275
sortium 22954
promp@@ 14848
ace 4621
ack 4869
industry 535
ach 3876
aco 17787
acs 22090
act 1402
acy 4263
berger 11612
lo@@ 605
image 1198
질@@ 34356
schem@@ 21445
00352 26096
 33168
parties 1012
Lite 22929
Pakistani 11693
angel@@ 25096
bergen 24697
technically 9361
в 17745
₵ 31577
ぼ@@ 32090
recommends 12216
จ@@ 30147
Harry 8577
Mes@@ 8955
Guide 9771
buying 4750
WIRT@@ 28876
friger@@ 29019
lana 24623
Men@@ 6097
CO2-@@ 27015
politically 6094
agree 1371
Seminar 24555
detailed 2174
gone 2463
ac 4812
ab 5392
ae 14182
ad 1498
ag 1354
af 13564
ai 4588
ah 1819
ak 2738
aj 20281
am 122
al 494
ao 9147
an 36
ap 10163
as 21
ar 1131
au 2320
at 31
aw 21319
gons 20364
ay 3982
ax 9228
az 12708
ğ 30082
Spiel 29026
spatial 13106
Bai@@ 13097
graben 29343
doub@@ 11222
Kurdish 11392
congress 10459
Ed@@ 5398
ہ@@ 33169
annes 20219
anner 25559
a. 11782
herbs 12972
Information@@ 28594
griff@@ 28595
TEL@@ 25223
shaus 29020
bet@@ 9609
GNSS 26899
tru@@ 3334
original 1247
Canada 2461
Zug@@ 27968
Caesar 20446
fairness 14066
reasoning 15763
Tyrol 9328
Hell@@ 20608
Lib@@ 21424
ะ@@ 29926
dressing 11882
ኣ@@ 31279
α@@ 16699
Oper 23198
Baz@@ 23711
川@@ 31280
س@@ 28457
cogni@@ 12454
Teams 26692
乐@@ 30287
Wolf 15077
interpreting 16707
pression 25090
condition 2166
Ro@@ 1134
Nob@@ 19749
determin@@ 18042
accompanying 9016
marvellous 16040
fam@@ 6780
数@@ 31163
three-@@ 4222
thma 18930
慶 33170
Vita 23745
thouse 11972
penalties 8669
sync 20681
situated 1281
Belliard 26411
悠 33171
베@@ 33172
Rek@@ 28361
section 1708
è@@ 4580
swis@@ 13901
amp@@ 3681
Safari 21765
light-@@ 15547
avenues 20756
contrast 3911
installations 6911
Xbox 19985
hours 690
sender 20247
Zurich 5659
TACIS 22493
compliance 3676
Lebe@@ 28265
ғ@@ 30250
durch 20703
pick 3162
action 581
senden 29237
ght@@ 6865
Gand@@ 18483
Aug 381
堆 32091
粉 33173
WT@@ 15766
梁@@ 31578
股 33174
Elements 24870
850 11040
Balkan 14938
petroleum 18861
renov@@ 17081
Dolom@@ 25603
archives 10670
غ 32092
organiz@@ 27234
sick@@ 19441
Philippines 10183
geo@@ 8718
Rwand@@ 24426
Wat@@ 9364
向 34357
keeping 3086
Wag@@ 23276
geb@@ 12427
science 2270
Oostlander 25472
indicating 11534
evolved 12174
黨 33175
break@@ 6895
Conference 2391
Koso@@ 23032
Recht 29197
impacts 8938
stated 2555
ŭ 30449
neglected 14110
accept 1579
states 1112
sense 1307
axis 11456
information 164
ding@@ 19143
換@@ 31281
earnings 4601
cling 16335
creature 9640
Hanover 16023
countryside 5278
notre 26832
mapping 18689
entrepreneurship 14443
Viol@@ 18670
Rosen@@ 14889
Swiss 2002
evaluations 17588
acquisitions 13025
伙@@ 31579
Schlei@@ 26853
称 33176
让@@ 30683
geographic 13921
慕@@ 34358
Fau@@ 17934
IL@@ 7842
щ@@ 19401
method@@ 18359
Alter 22669
Benjamin 10761
clo@@ 3509
库@@ 32093
deeds 11898
Eiffel 18091
Kes@@ 22588
travelling 4528
barom@@ 25057
王 31580
URE 19666
URG 23528
恒@@ 33177
URL 2906
propose 4385
PC@@ 8750
PV@@ 22199
ÿÿ@@ 23133
misuse 15767
Gerhard 19883
executions 18479
recep@@ 9153
IPC 22939
IPA 24286
拓@@ 33178
always 407
Newton 20482
tra 10442
ID-@@ 28038
experiencing 7697
Polo 18355
Sounds 27378
Infra@@ 24239
week 470
catalogues 19716
NGO 16551
ŵ@@ 29956
repressive 18991
try 893
أ 32094
Chalet 25840
missed 5655
STA@@ 27954
BMW 8437
ministerial 14901
nest 13861
highway 8840
hard-@@ 10595
Rein@@ 11371
ō 29087
ness 2043
conden@@ 18287
arable 14875
proxy 16307
imagine 4167
ologists 9139
👑 34359
amor@@ 10901
十@@ 30386
positioning 12544
ün@@ 12700
w 884
Ô@@ 24956
溜@@ 33179
protectionist 20858
thereafter 14348
Hotel-@@ 26484
number 177
purch@@ 23210
abled 25256
Hof@@ 20650
protectionism 16645
enlar@@ 19289
heads 4352
Turks 17019
Iran@@ 19033
threatening 8130
thwest 6073
addic@@ 12806
alien@@ 16629
Neelie 21948
紋@@ 33180
あ 32095
relationship 1822
Milano 20111
非@@ 30787
immediate 2957
appreciation 9396
consult 7758
focusing 6131
ynam@@ 26418
nour@@ 14696
grace 5765
determines 12603
Excell@@ 24153
determined 2834
marriage 4823
Atomic 20471
۹ 31063
Inn@@ 23194
善 33181
2008-@@ 4119
fights 12662
‍ 33182
vitally 20430
Club 3372
Kyoto 8419
pac@@ 12531
報@@ 32096
栽 33183
pap@@ 9005
play 565
yk@@ 21867
Prä@@ 27355
ligh@@ 5309
plan 936
sarge 22984
鱼@@ 31581
≡ 32537
vec@@ 15467
unequal 20575
tion@@ 4216
wood@@ 10810
cover 1760
ext 24154
prece@@ 20667
bodies 2401
attacking 11938
Müh@@ 27006
额@@ 31437
wley 25067
، 29946
Worl@@ 20349
6.000 27312
session 2914
seg@@ 20061
ões 26132
impact 1220
indicator 11605
tible 9671
failed 2643
optim@@ 10094
1408 25492
RF@@ 21009
REL@@ 26491
SHO@@ 23907
井@@ 31438
oration 11590
Prime 2799
Minuten 29011
Masters 13205
gratis 17677
ف@@ 29186
ገ@@ 31582
裂@@ 31795
preparing 4606
closely 2729
Minutes 6740
е@@ 12317
Help 14158
climb@@ 10880
면 33184
obscure 19260
courage@@ 26874
set 288
ses 2235
ser 5635
For 3171
Fox 8904
sey 8135
sex 3096
see 200
sed 2407
sec 12916
migration 4684
sea 683
dro@@ 5449
sen 3573
institutes 11542
sel 5604
sei 21113
Calabria 22991
vitamins 13690
面@@ 30410
Advocate 22297
歌@@ 33185
avoidance 18728
urve@@ 23841
Florida 5501
postponement 21727
Server 8464
Fast@@ 24698
hierarch@@ 22737
compu@@ 24150
š@@ 6861
Canc@@ 11833
岩@@ 32097
lock@@ 14928
eping 14650
long-term 1969
Kf@@ 26427
whole 593
McC@@ 7027
volcanic 14141
Aven@@ 21557
将 34360
º@@ 21533
corresponds 9910
community 1137
Lounge 13424
agents 4861
Schwer@@ 26348
fifteen 9923
疫 32538
acceptance 5428
hitting 10613
Trail 19025
Train 11752
ad-@@ 17666
firm 2338
fire 1605
Ş@@ 28959
fund 2859
towns 4572
Concert 20262
ﬂ@@ 29399
judicial 5099
propi@@ 25270
burg-@@ 18319
formats 6892
廣@@ 31282
job-@@ 22322
Strategy 4932
צ@@ 30104
MPEG-@@ 25524
funny 8581
decor 14655
goo@@ 6859
elevated 15001
Holz@@ 25616
2030 14952
IT-@@ 22246
Hosp@@ 26454
도 32098
DI-@@ 28773
spark@@ 11030
levels 1305
air-conditioning 13284
devi@@ 8652
focal 12917
recent 835
MEDI@@ 27778
makes 813
Rate 22159
regulating 14312
DB@@ 19800
clearance 14790
Quality 8978
inser@@ 13421
wardro@@ 13594
О@@ 28239
知@@ 30084
ings@@ 19603
ness@@ 16891
multi@@ 3918
POL 26277
co-ordinated 23634
pillars 10440
location 673
homeland 12608
relevance 10181
ble-@@ 20735
EK@@ 17149
victims 2399
demands 2479
绿 34416
instructors 17082
Appro@@ 26102
Box@@ 25661
cerem@@ 12725
pertinent 20905
transplan@@ 21982
Thy@@ 28345
Brava 20634
GAT@@ 24916
DER 19402
DES 26378
DEM 23312
sight 3834
Dame 15646
BIL@@ 24560
Link@@ 22675
氣@@ 32099
鍋 32100
be 23
tankers 21097
Look 19781
bb 21949
interpreters 18596
bn 5123
bo 9120
agreement 604
溥@@ 31583
Antonio 7789
bt 25313
bu 20201
Promo@@ 21909
bs 2997
by 28
Marx@@ 16585
wildlife 11104
Mark@@ 9214
anything 1460
tioner 13846
sar@@ 13272
SAN@@ 24258
soci@@ 4262
Guinn@@ 21336
tioned 9390
割@@ 31796
ylon 11643
ACE 16169
ACH 22773
integral 7914
Young 8449
以@@ 29953
ACP 8105
primarily 3535
Grau@@ 20772
unciation 18739
guideline 19482
Bosch 7219
õ@@ 25891
gements 19268
criticisms 16262
传@@ 30427
¥ 26801
EB@@ 3903
Russi@@ 19453
bargaining 16093
specifically 2952
occupy 13714
regulator 14777
relaxed 6971
pun@@ 4657
bass@@ 27181
Programm@@ 23383
link 1604
omet@@ 21478
Ū@@ 29718
ling 1449
line 566
MED 24925
MEA 22315
MEN 28334
vali@@ 11346
Prodi 10297
利@@ 30271
customers 671
MEP 14048
mature 10207
MER 26158
Ç 29301
瓦@@ 33723
Stri@@ 16094
nationalist 15762
defined 2575
anten@@ 22848
Parks 20694
Memory 18641
nationalism 15310
Manhattan 8015
defines 11286
codes 9070
婷@@ 30559
preventing 6270
actors 5276
θ 30622
Om@@ 21261
wrongly 19637
sided 11834
Murcia 25011
robots 13729
๑ 31584
hec@@ 16827
Railway 11544
ლ 33187
sides 2624
check@@ 6312
♡ 31439
ג@@ 30044
tailored 7970
驾@@ 32539
walked 7371
om-@@ 17725
Trau@@ 22456
summit 3409
ц@@ 20137
Ecofin 20879
hello 12836
code 2053
羅 30788
rene@@ 12888
results 555
耐 34361
analy@@ 4624
CPU 19536
欢 33802
环@@ 32101
Pfi@@ 23059
周@@ 30724
dig@@ 9435
send 1082
朵@@ 34362
श 32102
UCLAF 25112
sens 24131
sent 1329
privi@@ 28240
garden 1627
categories 4418
Musik@@ 22955
早 34363
Lom@@ 18402
wheel@@ 11327
Attri@@ 26845
ば 31440
erungs@@ 27879
obesity 13789
Seattle 10881
胡@@ 33188
logistics 5931
uel 25573
paid 1489
苗@@ 33189
incidentally 14667
asymmet@@ 19537
ues 10921
index 4258
Jessica 17827
约@@ 31585
Є@@ 31586
firma 29687
anton 11748
磨@@ 33190
Alan 9980
automati@@ 24962
Balkans 7759
firms 3701
bird 6382
led 602
leg 7410
lei 26486
Fed@@ 22449
lem 16058
len 6607
Friedri@@ 26908
dran@@ 21798
ler 1805
les 904
let 471
ش@@ 29374
ley 1970
lez 24730
Grün@@ 24098
ε@@ 19649
Commonwealth 14762
biodiversity 7754
Stream 20525
Energy 3040
ave@@ 24458
但@@ 30187
residents 3868
호@@ 33191
Staff 12793
Mountain 9445
complying 17136
Hau@@ 14308
330 10870
ج 30995
节@@ 31797
Haz@@ 18843
ʼ@@ 29921
standing 3321
recalling 18421
ministers 4938
doubt 2456
ʱ@@ 34364
loch 26020
Check@@ 23808
gross@@ 22316
es-@@ 4713
Gali@@ 22689
verk@@ 19956
occurred 4894
labelled 18148
sharply 10983
Rous@@ 20046
һ@@ 30560
á@@ 3226
insists 13987
reproduce 16493
Österreich@@ 28907
teri@@ 12666
ׁ 33192
bens 26441
bent 15843
국 31798
high 344
tür 28362
芒 34365
bene 27097
bend 18281
̧ 31799
Mix@@ 27145
kali@@ 26961
deck@@ 19959
revel@@ 8537
animal 2557
Rental 12749
blocks 5665
升 34366
ussion 14855
await 12104
malware 10397
perceive 12413
ciones 24567
notebook 19144
Kunst@@ 19704
demonstrating 12914
tariffs 12635
efficiently 6712
isse 19229
Nieder@@ 20248
Community 786
allow 910
intellectuals 18079
Erdo@@ 21148
ún 26133
Kaiser 20579
ょ 31587
除@@ 30996
Oper@@ 22876
Jä@@ 25905
Ь@@ 32103
comme 21561
Д 30188
級 32104
operative 11364
Secretariat 15557
vell@@ 26664
designs 5633
agu@@ 8663
Brücke 29518
usti@@ 17314
银@@ 31588
bat 13641
Domin@@ 28523
面 31441
ène 22639
bas 18410
ле@@ 23835
intern@@ 7661
eben 24102
kra@@ 18804
sufficiently 6993
delightful 13278
Concor@@ 19562
BUSINESS 22820
氏 32105
frequency 6174
thirteen 19438
Treasury 8675
liegen 28999
agriculture 2935
ร 30525
吧@@ 33080
Agreement 2921
Poto@@ 26815
favours 20953
rap@@ 6751
舞 30789
¼ 23195
interactions 16285
thotel 23503
् 30172
RELATIONS 24298
surely 4029
interinstitutional 13977
taste@@ 29289
custom@@ 12921
Nigeri@@ 18044
stimulate 9250
焦@@ 32540
McCar@@ 26165
blown 14426
450 5875
Review 9931
owned 3925
uous 15769
endorf 23720
ihm 29069
owner 2686
Pra@@ 6045
ying 2606
legislative 2883
sserie 26531
revitali@@ 18304
Fie@@ 27332
hormon@@ 22343
x@@ 955
painful 8973
adopts 17557
paper@@ 10966
CF@@ 9936
distill@@ 16418
3D-@@ 25953
ehl 25120
steel 2895
colleagues 2608
confortable 24513
OME 27498
aus-@@ 25364
nostal@@ 17455
Sant@@ 9975
祿@@ 33193
briefing 17753
steep 9563
steer 18320
Max@@ 15335
hel@@ 4732
tensi@@ 27251
Malmström 22180
Mercedes-Benz 18466
INTERREG 24429
肌@@ 33194
clearly 1212
u@@ 659
prohibits 20728
documents 1663
warran@@ 20757
studying 7481
intellec@@ 23515
Zentral@@ 29445
馬 31064
mechanism 4304
zz@@ 3620
competence 4761
Get@@ 11561
jects 21914
村@@ 32106
呼@@ 33195
Kosten 29559
64-@@ 12613
László 23813
전@@ 34367
충@@ 33196
erial 18350
repor@@ 5091
山@@ 30340
Ç@@ 10893
Davi@@ 17470
义@@ 31704
bikes 8977
asylum 4331
Independence 17184
sand@@ 7232
geri@@ 17360
promote 1807
hops 12286
Serie 22573
promo@@ 11699
planted 8860
Lut@@ 22060
hope 710
ნ@@ 30503
exchanged 13732
凉 34368
Ó 28829
Dynam@@ 21447
exchanges 8154
River 3937
ー@@ 29512
kreis 27798
bre@@ 3194
insti@@ 18854
reis 29722
accep@@ 21690
streamlined 21402
rein 21819
Rat@@ 12632
ine-@@ 11763
Afghanistan 3205
temporarily 9431
catastrophic 15971
mption 11378
sco@@ 6325
cryp@@ 16599
edition 4322
Azerbai@@ 28493
由 32107
兩@@ 33197
injustice 14774
email 1750
计 33198
Forum 4587
ignorance 15364
grasp 12939
ې@@ 33199
ehol@@ 25834
historians 16111
學 32108
Thurs@@ 24132
restrictions 4465
drum 13831
Ergebnisse 27617
drug 3080
ICES 25174
Shu@@ 18603
figures 2294
Anlage 29810
ሪ@@ 33200
戦@@ 34369
ck 1628
Pro-@@ 22579
adjusted 5972
ch 1080
co 2860
cm 828
authorised 8399
Guinea 12133
ca 2348
ce 1145
cd 21459
Rang@@ 29122
cz 7107
cy 5243
crafted 17262
cs 2100
allocated 6482
picking 11640
ct 13549
Cardassian 22536
Get 15591
票@@ 32541
郷@@ 33201
quotas 8448
ą@@ 23120
隆@@ 32109
2019 13998
recurring 17293
Gen 20954
c. 21472
ु@@ 30790
edo 24733
臓 32110
観@@ 33202
Wikicars 19464
ador 19336
ados 13970
Diamandouros 26875
esthe@@ 19610
laser 7667
Presidents 10704
lingu@@ 18305
Pier@@ 15418
Panorama 20818
delaying 20620
lush 12448
surprisingly 10691
lust 22053
Ă@@ 30135
bzw. 28923
G.@@ 17894
ʃ@@ 30725
Gothenburg 18282
Helms-Bur@@ 27139
Ale@@ 8445
highlighted 6743
ass-@@ 22358
ball 3003
socio-@@ 20955
pha 20758
bald 23905
phe 21151
forecasts 9058
phy 8780
Brau@@ 21034
paving 20947
罗 34370
Gi@@ 2735
php 703
Meran 25875
Altern@@ 27110
colour 3649
用@@ 30054
Julia 15746
otype 24304
command 4350
quart@@ 24191
recre@@ 17560
xed 11855
現@@ 32542
bananas 16255
moments 5217
xen 21188
Vent@@ 17973
tent@@ 17583
xer 20447
xes 7222
exemplary 14523
Flynn 21829
Bahrain 15445
ر 29088
generous 7491
探@@ 32111
pin@@ 9171
residential 5167
ennale 17854
sili@@ 16909
Dinner 22275
Pinochet 24061
ɨ 30791
half@@ 19353
accelerating 18288
ft-@@ 16311
100.000 26008
quisition 23366
replacement 6558
indications 10536
卖@@ 30649
habitat 14083
foreseeable 14313
穴@@ 34371
Frühstück 27836
thier 24514
Syn@@ 12279
ballot 12309
Borders 20433
transport 819
Front@@ 27946
avoid 1820
Barrot 23516
indi@@ 8564
contrac@@ 9850
practi@@ 14542
Eden 16835
ли 26469
് 30792
添@@ 31800
wet@@ 16757
BERG 26953
weg@@ 29000
EADS 8943
stage 1179
gained 4308
sister 5932
defe@@ 16213
answer@@ 25200
intru@@ 14651
Remo@@ 24137
seeds 8418
alliance 7513
tou@@ 4793
commitment 1732
ricul@@ 27313
还@@ 30504
brass 14776
眠@@ 33203
Nähe 29569
housing 3560
地 31589
Lap@@ 19209
サ 33204
턴 32112
naturally 3775
function 1705
cosmopolitan 17577
Staff@@ 26789
delivery 996
材 32543
construction 1217
Welt 17982
delivers 10098
Balance 23126
性@@ 30526
count 4098
correc@@ 18370
official 1393
smooth 6041
易 30997
reinforcement 18674
plant@@ 11156
ur-@@ 17939
bearing 6232
Teu@@ 27204
dur@@ 7764
pi@@ 1670
recognize 5023
sion 2202
dissemination 14801
Java-@@ 29228
時 30675
2-@@ 727
J@@ 622
therhood 11223
vie@@ 8639
prosperous 14489
variety 1551
Thess@@ 26137
cken@@ 20145
Schn@@ 26693
genau 29219
Ј@@ 31590
oppression 14781
URLs 25084
Aben@@ 27520
Page 5158
South 883
s.com 3741
niveau 28196
Demo 24630
ê 24470
real-@@ 15237
pension 4327
07.@@ 2430
rural 2784
derness 23529
Gon@@ 20549
consolidated 7305
164 13825
aviation 6469
Lodge 13528
oldest 5060
造 32544
167 14458
つ@@ 30224
Watch 13361
161 12760
volu@@ 24679
CU 25700
163 13243
RAT@@ 25271
Delphi 24013
kilomet@@ 28960
League 3966
世@@ 30919
Reasoned 27092
阳@@ 32545
ously 2471
distort 20483
sellers 14471
Gene@@ 14254
Schie@@ 27471
跟@@ 32113
Φ@@ 29144
imagin@@ 9703
-related 17897
だ 31801
elas@@ 21839
Bucher 26121
Chel@@ 8624
duplic@@ 20680
gesetz 24751
upload 10526
泳 34372
disc 11325
織@@ 33969
indices 20866
G@@ 490
Ca 23233
ā 27529
PlayStation 17397
Zeu@@ 24217
agno@@ 25924
Collins 14984
established 1228
巧@@ 33205
+ 74
Ensemble 23980
Cur@@ 6274
establishes 12560
churches 5515
onn@@ 17783
Nazi@@ 26925
counters 20240
着@@ 30726
Málaga 22477
俊 33206
mathemati@@ 21668
巫@@ 34374
pursuit 10715
Jean-Claude 20926
celebration 7699
balance 1757
rigorously 22115
aks 8240
employees 1368
Klang@@ 29062
akt 27943
aki 13988
ako 22141
smoke 7443
shel@@ 7923
aka 13575
ake 9484
diameter 7821
secure 2122
Mos@@ 16772
progressi@@ 27487
ко@@ 19477
uner@@ 26629
glance 10720
auditing 18135
soldi@@ 9664
Rut@@ 22768
Drugs 21045
Schau@@ 25943
chooses 17723
bronze 12201
呼 33208
妻 31591
Book@@ 18473
๊ 31442
reign 11195
rob@@ 9047
continual 17031
mainland 12156
晚 34375
tariff 10648
permits 8926
ticle 27907
Liqui@@ 24611
groves 15919
Ries@@ 26256
intui@@ 19008
compli@@ 19587
効@@ 33209
ת 30085
in 8
stop@@ 18083
Freie 27049
ಐ@@ 33210
thi@@ 5790
脑@@ 31443
indifferent 20329
請@@ 33211
危 33212
decou@@ 26012
ische 13978
-Sie@@ 29145
deplo@@ 14864
boats 5757
ordinary 4865
Chal@@ 17548
精 32546
Zealand 5726
sist@@ 25858
medi@@ 3173
atti@@ 16552
โ@@ 30527
提@@ 30341
浓@@ 34376
Tunisian 19905
supermarkets 12865
green 1683
Trust 11033
疫@@ 31284
暫@@ 33213
eigen 29826
zed 1898
devote 14112
consent 4990
zen 10316
zel 21637
zer 4137
zes 4756
6.5 9531
6.2 14377
6.1 12831
6.0 14818
famili@@ 12471
灌@@ 34377
mayor 8653
㎡ 32547
inci@@ 14183
碧 33214
somewhere 7008
air-conditioned 8250
0@@ 145
水 31285
then 182
them 108
賀@@ 33215
affected 2164
3@@ 228
tained 20126
thee 7792
plic@@ 18927
they 47
thes 20786
ther 4132
tainer 19569
func@@ 18109
ዓ@@ 30793
classified 8438
backgrounds 14964
Rot@@ 14798
DIR@@ 25436
spec@@ 7183
councils 14770
MB@@ 10272
dap@@ 27827
crimes 4219
hosted 8635
酵@@ 34378
dam@@ 5827
Artikel 27893
forts 26751
缩 34379
Salv@@ 20249
€ 70
vessels 5350
ำ 33216
undoub@@ 27241
werde 29715
Ware 23237
forth 4235
declaring 17331
年 29619
ardi@@ 25595
Pay-@@ 29354
tian 12188
tial 10713
unter@@ 11900
Graefe 26385
Massage 24752
incorporates 18153
eful 13411
Cambridge 9887
recovering 15231
ordering 9865
incorporated 7527
seh@@ 21521
organize 7048
取@@ 30288
Tür@@ 27794
Cell 21805
2014-2020 22630
Spal@@ 28830
Zie@@ 25155
Fé@@ 23423
ﬃ@@ 30854
AIDS 7545
Palest@@ 28707
aire 8818
庄@@ 33217
plas@@ 21911
airo 28961
EU28 27305
airs 22483
Nintendo 19543
oso@@ 25722
airy 19577
damaging 9918
B 319
enhancing 8684
子 30561
is-@@ 11035
Spa-@@ 29091
Advisory 15412
Set 18992
哥 34380
Sep 1308
-K@@ 21725
Sex 21302
See 8798
undeni@@ 18931
Tag@@ 18831
Sea 2437
dy@@ 3999
solely 5602
Tat@@ 11355
ന@@ 33218
Kreis 28673
Ν 30342
AGRE@@ 24973
Chiclana 26079
West-@@ 27146
manner 2455
Marrak@@ 27182
vigorous 18480
don@@ 3962
strength 2768
mobilising 23783
verage 15088
Pot@@ 19819
GAL@@ 27321
ype 15898
Jack@@ 12128
Esc@@ 22798
里 31802
ｓ 33219
Bonn 9861
Olivier 22755
Organ@@ 14516
Side 12616
Vision 14574
Bond 17676
Schloss@@ 26257
rati@@ 9374
橱 34381
accounted 12634
Austra@@ 16010
notion 8554
renting 15320
d- 24849
Kiev 11339
infrared 18400
7.2 15519
ى@@ 33220
7.1 15008
city-@@ 20816
7.5 8708
subtle 13209
ผ 32114
Kiel 18341
 30650
Libr@@ 24813
Janeiro 14201
del@@ 3821
Republicans 6341
VO@@ 17274
sporting 7771
dn 10150
do 82
dl 21139
像@@ 31803
disin@@ 9812
di 1434
dd 9225
de 216
噌 33221
da 1333
dy 2820
dt 10957
du 2561
Soviet 4166
ds 1141
兽@@ 31592
Armstrong 16504
bandwidth 18690
irregularities 15131
plug-in 17910
ไ@@ 30026
depends 3641
Κ 31444
interest@@ 15983
nem@@ 24926
Ы 30528
accord 13382
비@@ 33222
Poli@@ 10716
♏ 34382
utation 21973
packages 4384
cos 8461
de-@@ 5372
cot 13185
cow 12558
杂@@ 32548
cann@@ 8049
Focus 20202
coa 28131
cod 15353
Navy 10372
requests 916
com 4936
col 24407
con 5180
negotiation 8169
nesses 20661
Forestry 21538
guin 19103
Board 1483
eig@@ 26138
Ę 31593
flexibly 19996
ڭ 33223
精@@ 31164
Hed@@ 16159
Hillary 13776
Groups 19224
flexible 3220
dozens 8219
ẽ 31286
challen@@ 23309
families 1719
leng@@ 20614
Vice 7316
Citizens 12196
ow@@ 10600
market@@ 15963
coherent 7928
boden 28182
仝 33224
∑ 32549
OB@@ 21632
Vehic@@ 20467
immun@@ 15740
Ox@@ 17457
voice 2190
PROCESSED 24180
Frequ@@ 22855
관@@ 34383
区@@ 30794
ми 26586
world-wide 13367
维@@ 31804
comparative 14382
jeop@@ 23790
滋@@ 34384
confirmed 2809
vou@@ 16251
patent 2886
plates 8951
娱@@ 30795
utely 23869
Tran@@ 11826
raid 12955
視@@ 32550
rail 3822
evil 4353
pubs 12641
mountainous 17547
interes@@ 27687
Y 2298
Mini 19611
kept 2244
round-@@ 20933
thy 6628
1978 8322
1977 9408
1976 8762
ept 14412
1974 9280
ths 3144
eps 9030
1971 10313
1970 7704
Aug@@ 12284
thi 23349
晚@@ 32551
Paraguay 21125
the 2
camps 6523
taine 27641
tha 9906
BAU@@ 23390
Vul@@ 23648
Nest@@ 19403
adding 3955
toxic@@ 14922
hills 6115
ktor 27799
passive 12523
AN@@ 4916
spread 2740
transformed 7581
plasma 15429
垣@@ 32115
ativ 27322
塞@@ 34385
caps 12524
confi@@ 11885
izing 16345
塔 34386
aran 20802
disadvantage 12801
Utop@@ 26399
Erd@@ 27847
ぎ@@ 33225
Vladi@@ 27188
bps 19421
Trading 14483
Aster@@ 27356
depri@@ 16619
security 503
gres@@ 9663
ვ@@ 30562
antique 12073
SOLVIT 25560
sends 10460
neighb@@ 13013
Ner@@ 16661
productions 9100
critique 13281
Trin@@ 14708
Poker 7110
Lee 7217
专@@ 31065
博@@ 30304
起@@ 31066
comments 2064
Leo 18645
Biblio@@ 29187
Les 11319
Let 11509
External 9490
tremend@@ 23298
av@@ 1530
stitution 22946
WAL@@ 25849
ấ@@ 31165
graduates 12312
Place 8735
graduated 12443
LICH@@ 29585
制@@ 31594
Image 10189
rescu@@ 11169
otel 24792
dilemma 16545
Cup 3326
pays 7254
delighted 5106
balances 16084
stry-@@ 20095
country-@@ 17420
balanced 3891
oter 14744
മ@@ 32116
岗@@ 32552
ય@@ 33226
목 33227
そ 33228
suffice 19597
fight 1390
accordingly 4975
ъ 31595
т 19570
情 32117
mar@@ 1736
骤@@ 34387
杭@@ 33492
vitality 17843
ח 32118
SSON 28551
Sovi@@ 26242
responding 10145
Har@@ 2677
veiled 12369
01.@@ 1813
Riccione 24793
즐@@ 33229
づ@@ 31596
￻ 32553
mails 22683
ἀ@@ 32554
剖@@ 34388
inclusive 5495
國 32119
paragraphs 13172
Malta 6020
evidence 1876
廉@@ 34389
aver@@ 7479
physical 2267
び@@ 30098
weakened 13930
弄@@ 32120
decision-@@ 27898
3.@@ 1201
ant@@ 4495
negotiators 19314
interested 1639
unwilling 17728
章 31597
ю@@ 23956
33@@ 2841
Sä@@ 29290
ை 33230
polite 15537
some@@ 13550
Gaz@@ 16606
य@@ 31067
Linux-@@ 27842
B.V. 24617
itude 22621
modules 6087
Mission 12022
together 442
憩@@ 33231
reception 3079
司 30472
Ober@@ 9481
禪 33232
global 674
datum 13093
compreh@@ 18061
supposedly 13586
she@@ 9245
grape 16805
zone 3114
ju@@ 2814
Azores 21485
graph 5284
flash 9354
训 34390
posure 24684
permanently 8755
relli 23739
0,00 6356
ophobia 21950
procedur@@ 29599
protective 8950
ņ 34391
offen@@ 7798
liability 3683
anonymous 10735
bombar@@ 20545
Global 4804
prior@@ 29225
ilibrium 29365
p 561
Ort@@ 28055
Ϊ@@ 31805
ault 14113
末@@ 34392
revolution 4083
professionalism 13569
PCI 21327
rau@@ 15223
PCB 24659
‛ 30594
Waste 20355
PCs 15792
ؤ@@ 34393
ｌ@@ 33233
⌊ 34394
huber 25792
ère 8119
satisfy 6119
supporting 2705
explosion 10014
ź@@ 29751
št@@ 25808
Enga@@ 28748
Berry 16596
ager@@ 24174
20.00 13922
appears 2560
change 427
Strau@@ 27301
尽@@ 31166
Com@@ 2036
ป@@ 30179
trial 2691
relie@@ 12178
ekt 29182
eks 16102
.exe 25043
low-@@ 4805
retired 8910
hiking 5138
bel@@ 5754
lending 6004
AKP 25272
jas 22524
rarely 7628
mobil 29093
Bibli@@ 23206
tung@@ 23893
jan 12474
Quad@@ 21922
Tiger 15376
live 739
stan@@ 6047
erce 27074
MECU 27882
entrance 3232
pension@@ 23565
towers 10801
Mount 8117
ي 29291
eive 21164
Eu@@ 8425
ʦ@@ 33235
Pri@@ 4840
臓@@ 33236
Jens 21893
balcon@@ 28692
EI@@ 7692
incidents 8866
thful 15304
Daul 26230
spy 15219
dedicated 2289
noch 18873
expanding 6348
subsidies 5849
nock 25116
kost@@ 29382
purity 17504
spa 3847
productive 6142
bonds 6339
criterion 11681
AST@@ 20912
deterior@@ 21650
liberalisation 6423
Pyrenees 20384
cours 24640
prohibition 13217
nomination 11010
compatibility 9914
justi@@ 17355
remember 2155
ghs 11678
character@@ 16200
explicit 10151
Rober@@ 11034
rather 789
티@@ 33237
progressively 18773
Griff@@ 15599
30.@@ 4523
ghi 20541
indeed 1268
Hezbollah 15540
援@@ 30920
ities 20637
． 30563
colo 24814
nitrogen 16664
coli 19812
cold 2880
cole 21046
Ug@@ 23260
birds 5311
ular 9508
kir@@ 16857
rooftop 16295
interrup@@ 19297
enne 12781
acknowledge 7106
selves 25330
Icons 28311
Relais 24577
α 22156
window 3032
enny 10319
Wallström 20964
ȇ@@ 34395
................................................................@@ 25864
halt 8143
Compliance 23957
ITAL@@ 26519
ĺ@@ 30998
Ligur@@ 21234
酒 30505
tration 27537
half 890
ใ@@ 30079
˛ 30411
hall 3254
蓟 33238
sth@@ 18818
servant 8378
modu@@ 29523
◵ 34396
cip@@ 10601
ste@@ 2251
entirely 3105
concerts 5898
sanc@@ 7258
em 2874
el 930
eo 12024
en 467
ei 8088
significantly 2991
ek 3634
ee 6200
ed 190
eg 17997
ef 11092
ea 9338
ec 14838
eb 20361
Barack 6715
fires 8247
ey 2508
Brenn@@ 20697
ez 7039
eu 16868
et 971
ev 14965
ep 5160
es 340
er 351
electron@@ 25456
shown 1419
opened 1718
space 898
obe@@ 7638
赌@@ 30796
س 29805
兰@@ 30260
Compact@@ 25925
receiving 4388
viable 7762
shows 1192
e- 22070
inevitably 9970
e. 20518
homo@@ 15136
ு@@ 33239
Cover 25604
golese 21899
Mauritius 20421
rebel 11827
д@@ 13436
ŝ 32121
inevitable 9116
Hend@@ 20729
幣 31287
Bavarian 11652
ረ@@ 30921
業 34397
volution 24738
üssen 29170
palaces 17188
mush@@ 13523
promotion 3385
2002-@@ 19380
Gonzal@@ 28465
benefited 12440
striking 7723
lag@@ 2109
Asia 2195
comprised 14441
Nu@@ 9097
Rates 27004
comprises 7325
impossible 2879
forwarding 18520
size 1037
sheep 7577
sheer 13981
Diamond 18515
sheet 4705
silent 7873
breed 12559
popul@@ 13495
Maxim@@ 19410
households 8248
′ 9261
Galicia 20234
cost-effective 13023
ұ@@ 30564
thri@@ 5567
friend 2262
gas@@ 5921
mostly 3359
ḥ@@ 30506
uni@@ 3731
卐 33240
几@@ 30595
Milch@@ 29764
Inc. 10205
例@@ 31806
ESP@@ 26250
継@@ 33241
rugged 18218
optimise 17828
ZEN 29760
optimism 13472
Buff@@ 14759
fruits 6806
geht 27088
angen 29495
angel 9696
亲@@ 31598
correction 9362
從@@ 33242
13th 4653
Call 10334
Fab@@ 12117
anger 7452
Cala 14912
breakfast 988
Thun@@ 29831
思 31445
disrup@@ 13212
യ 33243
ditional 18725
textiles 11606
隔@@ 33244
objective 1742
world@@ 13120
Lach@@ 24670
ќ@@ 31288
110@@ 10752
ә@@ 30373
undertakings 9579
GV@@ 23230
sunset 12055
衆@@ 33245
Free@@ 15964
Fifth 17746
가 30999
DNS 21993
Candidate 22950
Alpha@@ 22064
Flug@@ 28409
Jean 9733
ground 1027
Infrastructure 17844
ratio 3056
ratic 23054
Vivi@@ 24039
proportion 5707
texture 17193
222 14580
報 31599
Solar 9129
developed 1011
не 26685
на 22616
но 24745
ビ 33246
Emer@@ 16041
sach@@ 25344
溶@@ 33247
想 33248
Rundfunk 28436
Allen 12074
诱@@ 34398
husband 3960
concert 4276
attached 5104
datenschutz@@ 29236
璐 33249
Location 19549
concern 1816
Format@@ 28502
tackling 9727
seekers 9588
justifies 22344
Berlin 1128
gian 24103
herbal 16931
justified 5979
値@@ 34399
article 2047
stages 4724
talented 11212
Lifest@@ 27574
cro@@ 3995
xion 17333
schnell 28918
丨 33250
comes 899
COP 24905
COS 23071
dispatch 17652
Lau@@ 6900
COD 19283
moreover 2183
COM 7130
Leader 12009
sticks 14484
beginn@@ 10971
rebuild 13358
了 30922
demonstr@@ 26541
pal@@ 5453
punished 11975
TÜV 25449
dangers 9266
rebuilt 13492
shortages 16293
臺@@ 30923
leb@@ 18851
observers 9217
LabVIEW 22926
Text@@ 27667
stems 17464
countless 8468
CO2 5132
Tor@@ 5385
developing 1317
98@@ 4506
editorial 11738
Bun@@ 11787
Beng@@ 16156
soil 5149
Dick 18805
bial 20325
ANT@@ 13966
Kam@@ 8560
South-East 22778
bias 18611
embrace 11291
Pen@@ 6238
adversely 20179
 32122
nov@@ 8606
media 905
跨@@ 33251
Acceding 26701
RI@@ 16824
document 1942
citiz@@ 24251
finish 3850
评 32123
pd@@ 24561
dabei 27937
fruit 2897
Psycho@@ 20893
schön@@ 28060
dul@@ 13163
tradition 2791
mentally 13993
PROGRAMME 26867
Billi@@ 23165
theater 7616
traps 20332
biblio@@ 24750
Sheraton 22640
invites 7640
ۇ@@ 33252
conten@@ 6494
i-@@ 12194
웨@@ 33253
Zau@@ 28759
EPP 21608
〔 31807
multilater@@ 28885
touch 2755
Leicht@@ 29070
speed 976
EPA 17398
desktop 9066
treatment 1129
complements 21118
struck 5220
momentum 8877
real 557
read 1008
lado 26762
Eclipse 23114
ware@@ 12664
reau 26752
abstra@@ 18651
lady 7357
rear 7977
Shop 10101
Shot 24093
Jav@@ 24807
Show 6744
Ship@@ 22466
suppliers 4127
chth@@ 27627
Shoe 23398
MED@@ 24675
downward 16686
 32124
东@@ 30684
刺@@ 32125
Hotspot 26932
exporter 21544
Emma 16878
duration 3259
roo@@ 8952
Wash@@ 25140
Ful@@ 12333
动 30685
recorded 3318
agers 21133
conservative 6153
Southeast 15480
beau@@ 15772
deficit 4464
до@@ 24900
Interface 22447
woo@@ 13604
蠕@@ 34400
asti@@ 15041
is@@ 1164
credits 9413
Љ@@ 29939
ся 28853
Promotion 19823
折@@ 31446
wurden 27480
Zen@@ 20338
central 1002
S.A. 11277
atten@@ 6674
签@@ 31600
bu@@ 1495
Solutions 10701
underway 11806
juven@@ 14089
protests 5919
Eurocopter 22126
nur@@ 5560
税 32555
shipbuilding 17640
heated 6509
Vor@@ 13075
Meeting 5800
DO@@ 8318
ἠ 33254
prepare 3180
Hotel 636
雷@@ 30686
ھ@@ 33255
µ 29204
Prestige 21936
Bett@@ 24259
朋@@ 31808
◇ 31601
스@@ 32126
unken 23302
tram@@ 19774
437@@ 20378
onau@@ 20850
cottage 12179
trying 1614
irreversible 20416
ĵ@@ 32556
hire 3271
circulation 7775
illing 15225
ски@@ 26868
draftsman 19969
sculp@@ 13121
tax@@ 11297
aber@@ 26243
ners 7172
describe 5469
moved 2485
sales 1057
cafés 13671
moves 5728
Homepage 25404
℟ 31167
completeness 14079
妤 33256
antenna 18667
25,@@ 15125
credibility 6645
storage 2670
turbul@@ 15498
evenings 10314
mathematics 14139
б@@ 17177
gaining 9216
polar 13551
เ@@ 29113
ψ 31168
Pad@@ 13101
coverage 5381
Pay@@ 15984
Myanmar 11912
escal@@ 12672
诫@@ 34401
ɡ@@ 31289
Workshops 27766
life@@ 16710
audi@@ 7605
tak@@ 20709
ishment 16179
strings 13587
enz@@ 6773
pointing 9112
Capri 22796
speci@@ 6867
Moses 6213
Schmidt 16553
Statisti@@ 10952
Brown 5666
referring 5866
guesthouse 17758
Lind@@ 15992
ֹ 33257
67@@ 6260
nodes 20980
ን@@ 32127
vers 3478
über 19134
Spani@@ 18230
confidential 10636
very 97
part-session 15549
Technische 25645
south@@ 15249
mps 15322
austerity 9387
vern 17937
Beethoven 16711
Hamburger 26292
Villa@@ 23156
Reise 29519
블@@ 33258
LDAP 25434
Breakfast 6008
Functioning 21810
TSE 27344
mbo@@ 23624
Legisl@@ 27783
mill 9294
conscience 10086
Latin 3387
witnessed 10360
grin@@ 18874
Heath@@ 28744
witnesses 7339
-Stiftung 29171
jede 29733
multinational 12018
Dru@@ 16256
은@@ 34402
adap@@ 15142
answers 4415
Battle 14549
strong 885
bathtub 15875
colored 14275
ahead 1961
Ira@@ 25998
Director@@ 24699
rors 19548
m-@@ 6404
Victor 16343
Recommend@@ 26996
Ν@@ 28266
train@@ 25247
Ğ@@ 30727
Peters@@ 26900
Clou@@ 24584
dema@@ 29134
shoul@@ 24970
easy-to-use 20146
gast@@ 24305
ന 33259
experi@@ 11812
praised 11854
Ann@@ 17697
尔@@ 30261
injury 5151
Sap@@ 22806
ش 30728
exam@@ 12186
broke 5676
Mö@@ 24244
Kurfürstendamm 24627
Flemish 19916
TV-@@ 19993
ologischer 29292
shut@@ 12539
nine 2998
ning 5886
Tallinn 22288
FR@@ 9670
favour@@ 19156
pushed 6902
É@@ 13768
ต 30473
exclude 11091
lacks 13501
宮@@ 33260
f. 22727
Clever@@ 24507
春 32128
w@@ 524
ratified 10352
foreseen 11490
können 23176
foresees 23040
fr 10255
fs 5788
ft 1222
fu 17054
z@@ 563
agn@@ 17940
tec@@ 11618
Laser@@ 26244
fa 9773
fe 5779
ff 2352
Illu@@ 27333
fi 7978
willi@@ 27075
Fu@@ 7627
gast 29094
fo 16729
顯@@ 33261
国@@ 30041
prerequisites 19924
documentation 5137
Apar@@ 26738
bugs 12900
Deep 16806
ds-@@ 22448
File 16103
moderni@@ 17387
Pol@@ 5838
Film 6397
feed 3671
gran@@ 7462
Africans 18695
cyclists 14731
poul@@ 29357
atsu 24562
environmentally 7368
fourthly 18384
сто@@ 27284
余@@ 30729
Ф 30129
Habsburg 23476
fined 18964
North@@ 15023
fruitful 14400
拳@@ 32129
österreich 29429
閱@@ 34403
fines 10310
post-war 18616
FIL@@ 22958
food 615
awarding 19042
自@@ 30136
sweeping 14674
로 30730
desperately 15212
resu@@ 21594
fully 759
capability 9135
周 32130
ACTA 24913
ه@@ 29546
trailer 12141
referred 2937
ֹ@@ 30797
Ψ@@ 29960
87@@ 7145
vr@@ 24773
ox@@ 20339
Engine 19807
shop@@ 10977
est@@ 2566
since 180
ガ 33262
IER 27777
寸@@ 32557
slo@@ 8985
ass 5190
bass 10646
dirt 14076
Gren@@ 18154
asy 15844
dung 20986
Ì 30086
pub 12037
asa 14074
base 1727
coastline 11807
dire 17639
尴@@ 34404
ask 824
asi 18965
ash 5068
Investments 22663
pur 19708
pus 19184
XL@@ 24957
voor 22834
Publi@@ 12180
vers@@ 7800
Soundproofed 23508
leading 1006
楽 31169
2371 25852
partnerships 7856
probability 14288
Than@@ 14582
었@@ 33263
reflected 5256
明 30855
surro@@ 14670
micro@@ 3940
130@@ 13891
Natura 18702
Nature 7859
endo@@ 12512
徳 33264
UNIC@@ 28073
Delta 12040
Mim@@ 23884
Plan@@ 7572
shifted 13953
區 32558
Caf@@ 24527
mann@@ 22002
މ@@ 33265
転 33266
法 31000
Venture 22442
Cai@@ 23211
kindly 11813
performers 14709
Fli@@ 22406
atable 16099
mobiles 24632
Hel@@ 5876
deciding 9561
hn@@ 23216
Defence 8375
丸 33267
centrali@@ 13102
Father 4266
Douglas 15043
juice 8495
substantial 3423
Megapixel 26660
vulnerable 5172
怠@@ 34405
patterns 6615
deli@@ 8516
ção 22728
牌@@ 32131
labour 1988
线@@ 31170
Dis@@ 4408
reven@@ 13446
towards 844
quote 2899
ુ@@ 33268
quota 10109
exempted 22109
eaten 12060
The 285
Alli@@ 21407
乱@@ 33269
µ@@ 22030
salary 9981
BES@@ 29275
c@@ 233
eisen 27883
blend 10929
Shir@@ 22176
Clar@@ 10195
Gian@@ 21933
completion 5407
Bio-@@ 27161
copyright 4338
Nad@@ 14396
Note@@ 27922
Traffic 21745
pretty 3268
ả@@ 30507
stin@@ 11891
meanwhile 4271
Add-@@ 28066
Fried@@ 19639
gens@@ 22420
trees 2840
Crystal 19737
XML-@@ 29089
during 229
Margot 25189
asch@@ 28380
① 31809
ã 26500
`@@ 11913
浦 33270
ס@@ 30474
kina 26825
sacrifices 16097
唐@@ 32132
eable 15124
hous@@ 25999
scanning 15813
Zukunft 28994
ени@@ 19099
Wunder@@ 28524
as@@ 800
descriptions 11671
Intern@@ 23110
tative 20730
Parc 20555
스 32559
Park 1864
Part 11714
assistants 16632
喇@@ 32560
poorer 13723
genre 12650
 32133
Ziller@@ 25689
CM@@ 13917
adores 24004
anou 28241
Hard 22374
Clari@@ 24104
anos 22020
horizon@@ 29734
Non-@@ 16294
liked 5746
univers@@ 20835
battery 6116
Antiqu@@ 27189
ど@@ 31068
disadvanta@@ 28257
likes 7698
zusammen 29256
doping 18447
bar@@ 2425
Gar@@ 4062
態@@ 31810
era@@ 25422
described 2275
configur@@ 22907
न 31290
˜ 29756
Most 12938
describes 6675
maintenance 2969
gie@@ 26126
ration@@ 11478
partly 4788
packs 15390
nten 28346
edi@@ 4546
else 1964
WIC@@ 29487
utmost 7784
governor 7216
ernity 17241
ຸ@@ 30924
ོ 33271
棲@@ 33272
So@@ 3037
loyment 29334
ህ 31602
voters 4483
overlooked 15629
呈@@ 34406
herein 17747
jpg 1430
rulers 13239
Sp@@ 4084
ị@@ 31811
anymore 7173
Mein 28510
belong 4855
L@@ 424
SU@@ 10924
guestrooms 21262
ester 7128
POL@@ 22566
夕@@ 33273
Shine 22397
used 242
temporary 3990
ḍ@@ 34407
zwar 29454
usen 22339
vine@@ 18919
transform@@ 14678
drit@@ 28626
uses 2116
user 1118
块 33274
黃@@ 31603
sw@@ 5806
SD@@ 10143
tica 11267
力@@ 30856
買@@ 32561
clears 22218
Girl 14990
ani@@ 3849
distances 10871
wider@@ 28962
TEN-T 25515
quarters 7091
I@@ 755
iere 29257
➡ 31604
$ 292
Football 11856
guaranteed 3993
l-@@ 7578
numeri@@ 15903
Para@@ 26390
guarantees 3848
transformation 6396
待 32562
... 124
avier 23439
march 11347
Trogir 24027
evaluate 7270
ع 30099
Resul@@ 16646
culturally 18722
CONS@@ 25844
食 31069
overriding 22472
Scanner 27955
submission 10978
Computing 25136
Vati@@ 28494
signal 4153
Learning 13912
res@@ 4972
Ly@@ 5363
creation 1676
trends 4641
Lt@@ 21895
trendy 13195
少@@ 30289
Mikro@@ 28596
ʺ 32563
exceeding 13437
civilization 11688
phasing 23557
Castello 22899
run 921
rum 13622
hypocritical 22401
processing 2230
lakes 8392
rue 13026
laken 25417
バ@@ 30412
redundancies 18819
Dusche 29898
rus 9938
Betriebs@@ 28208
abroad 3243
rut 17298
ateful 22719
Sven@@ 25126
faith 2473
ș@@ 30055
76 2506
sibilities 26269
ll@@ 3908
Lion 18404
用 31812
正@@ 30234
共@@ 30925
抜@@ 32134
seeing 3075
Decree 20365
71 2074
SQ@@ 23765
Katzen@@ 29198
寝@@ 34408
হ@@ 33275
画@@ 31605
Innov@@ 12763
SERVICES 25190
Racing 16810
rolls 12430
scra@@ 9154
lodged 16546
accountability 10958
害 33276
consultation 3724
heritage 4498
78 2496
fisheries 4049
砕@@ 33277
Resol@@ 26009
himself 1421
EN@@ 5073
侍 32135
bed@@ 10040
Cra@@ 5702
consisten@@ 23263
Miro@@ 26235
Ever@@ 13869
tre@@ 2253
bei@@ 12433
circuits 18731
.... 3860
dual-@@ 22210
evi@@ 8713
choosing 7204
Drin@@ 26127
doesn 1649
S-Bahn 23270
cotton 8588
politicians 3782
forge 16653
就@@ 30225
Sti@@ 12629
ि 33278
ey@@ 6197
spectators 14705
keep@@ 17943
ases 6384
aser 16268
visits 874
start@@ 22872
ef@@ 5738
eval 15662
ペ 33279
ecu@@ 14249
ased 5342
appen 28802
required 919
į 30731
depth 5471
圍@@ 33280
applic@@ 19247
ú 24306
requires 2217
Lars 21185
kilometre 17775
gu 21915
gt 5213
gs 3148
gr 12004
G20 13693
gy 4427
acqu@@ 9982
ge 1763
宅@@ 32564
ga 2948
Corn@@ 18832
gn 9210
gl 18405
Integrated 19759
gi 11259
gh 4034
escap@@ 14225
arin 18675
ario 13364
aric 7349
aria 8115
arie 20929
aris 18497
Teen@@ 27439
tici@@ 27455
ut@@ 2449
portfolios 19220
prudence 20090
comit@@ 26412
Fel@@ 12167
祖 33281
g. 13438
5@@ 193
Hawai@@ 24602
Herbst 28701
Spa 6567
endanger@@ 22995
Passa@@ 25505
切 34409
abo@@ 8038
đ 30651
釉@@ 31291
ult 20616
tob@@ 22895
download 2003
narro@@ 10635
click 1167
auspices 19298
Ingl@@ 24886
resque 29161
perfec@@ 18492
ych 19400
eke@@ 21168
; 69
Fleisch@@ 29041
eill@@ 26980
2@@ 379
focuses 6155
9th 5553
stance 5558
虑@@ 31171
Greek 2968
三@@ 30137
Green 3506
ger@@ 3480
74@@ 5050
fisher@@ 21306
ula 13751
enhof 24260
Flexi@@ 24680
products 311
1244 26030
out@@ 1738
embarra@@ 10415
SIM@@ 21419
examining 8705
Ministeri@@ 29723
煤@@ 34410
juries 27422
Kirk 13107
la-@@ 15119
Kira 26278
cloud 6512
PM@@ 15014
vir@@ 13943
邱 33282
reflects 5694
ძ@@ 33283
no@@ 1415
benchmark 11601
Interinstitutional 24528
missile 11627
07@@ 6962
fundamentalism 21044
drops 5537
Studien@@ 29241
dom@@ 9205
Quelle 23976
providers 3314
grave@@ 28138
escaped 12587
อ@@ 29242
founding 7428
gains 6091
hesitate 7164
boasting 17508
ici@@ 8579
poetry 12115
located 446
gs@@ 7907
Ken@@ 10987
deplore 22908
Lobby 24021
Philips 22827
Pf@@ 19454
Philipp 21768
EM-@@ 27481
rev@@ 16426
独@@ 31813
modali@@ 25473
Py@@ 11263
字 30652
Stau@@ 27894
paar 28477
ller 11337
🎉 32565
vement 17623
Iz@@ 19012
Malay@@ 19345
IO@@ 10120
掩@@ 34411
ዲ 32136
agenda 2547
healthcare 5547
Gor@@ 8575
cle@@ 5047
Gonzalez 21103
bathing 8991
großen 29390
dreji@@ 28749
Smith 5249
offences 12185
Dy@@ 11334
exclusion 6629
till 3945
atorium 26386
务@@ 31172
Buffet 23495
Luis 14686
pixel 19502
apo@@ 13955
ically 5739
屄 33284
Califor@@ 21686
Miami 8835
auto 9686
pins 20192
app@@ 2769
iPhone 5786
Leit@@ 27076
Heil@@ 25985
Supreme 6811
Celsius 18176
偿@@ 31606
mode 4265
Til@@ 17199
pools 6764
影@@ 32137
Wen@@ 17432
reser@@ 15446
medicines 6595
upward 15450
guten 29021
mon@@ 1594
བ@@ 32138
chung 28428
თ@@ 30798
climatic 16009
Y-@@ 24616
→ 21095
schu@@ 25322
guter 29838
gutes 29397
sandy 7001
Lec@@ 19161
undemocratic 23418
wicz 22298
ア@@ 30157
activist 12851
sse@@ 7508
wich 10047
well-@@ 2805
underpinned 22594
潜@@ 32566
achievements 7053
shir@@ 24076
ece 14579
kateg@@ 29243
eca 22044
eco 22160
eck 11808
ech 14833
ect 8889
comm@@ 3750
advisor 16242
achst@@ 25979
Kreis@@ 28647
Enh@@ 21342
Uru@@ 29188
route 3092
diminished 14675
ฒ@@ 33285
keep 743
Hoh@@ 21017
keen 7519
Lektionen 29856
modernising 21384
etery 11984
tivity 7741
eters 13305
Lama 14564
yond 24091
Managing 10818
Transi@@ 25111
Lamy 20872
ASS 21677
WORD 23408
AST 20104
WORK 25423
attach 11294
attack 2051
chs@@ 18521
ASE 20917
occu@@ 17154
Catalonia 7796
2-3 11873
Indic@@ 21513
化@@ 31001
ity 1691
earmarked 16633
Pavi@@ 19845
R 1387
alising 9281
sson 8916
overwhelming 9776
herself 5319
普@@ 31814
updating 13117
ἶ@@ 34412
bek 22574
photograph 9332
bei 14267
ben 10823
bel 6914
bem 28381
bec 25463
bed 853
bee 16141
bey 19253
ber 2674
bes 5669
providing 1590
distinguished 9241
bet 5356
exhibit 12510
Information 3514
ṳ@@ 31292
Highlights 27446
unchanged 10606
Jür@@ 27899
alo@@ 5986
Rol@@ 7987
border 1966
ʦ 33286
Ramb@@ 26587
destag 17579
instance 2618
visor 13819
Mein@@ 25707
fuels 8287
뱅 33287
江@@ 31447
Guer@@ 25814
consequences 2337
Pes@@ 17162
Pension@@ 27403
Rele@@ 26588
proceedings 2928
Growth 8698
affair 9577
Matt 9478
anyway 6219
刻@@ 34413
portra@@ 8386
吃@@ 31815
ko-@@ 27900
boutiques 15243
fuer 29639
↩ 30565
communic@@ 13773
co-@@ 2466
辆@@ 32567
fuel 2658
On-@@ 27506
乌 33288
12. 29001
120 3231
121 9569
122 9050
123 7555
124 11357
125 6650
126 10666
127 11151
128 9055
129 11072
immer 22391
奮@@ 34414
evolution 6579
evident 6716
概@@ 33289
objec@@ 10714
sha 18128
dre@@ 3914
she 179
shi 19476
terrace 1922
wor@@ 3566
-F@@ 12682
legacy 9006
usefulness 20672
希@@ 31448
df@@ 18360
跋@@ 33290
Good 8502
waste@@ 16720
written 1306
correctly 5725
lug 24818
neither 2620
ׁ@@ 32139
sole 5752
Campo 19357
entr@@ 9571
muni@@ 12742
Race 15002
approval 3125
precious 6372
problem 595
interpretations 16001
dubi@@ 25384
న@@ 32140
bund@@ 13074
爛@@ 33291
wäre 29529
Jacuzzi 13686
authentic@@ 24159
Fur@@ 12392
找 34415
theat@@ 11448
理 31816
kok@@ 26949
competent 4887
et-@@ 7955
Adri@@ 16537
tiene 25424
顶@@ 33292
condol@@ 28495
addition 783
discrimination 3905
solarium 13672
Immigration 19683
oeu@@ 21746
Dü@@ 28209
minimise 17302
statisti@@ 20350
username 16483
育@@ 32141
Di@@ 1845
releasing 15579
Hybri@@ 25370
Dragon 17589
expenditure 4371
ይ@@ 31070
mail 3846
Logistics 18768
novel 5731
contexts 16858
owns 10364
Cyprus 4659
Elbe 22478
Elba 20768
resident 8188
sali@@ 20440
тся 27865
忙@@ 34321
瓶@@ 32568
PPE 18433
qualit@@ 19538
PPP 21486
incumbent 16505
Eurodac 25405
敏@@ 33293
tenment 17885
absorb 14019
ECspokes@@ 30113
Sen@@ 6080
solu@@ 16064
isco 20448
isch 19999
transaction 4968
reflection 6991
i 206
Conc@@ 16910
user-friendly 16981
reside 18180
₪ 32569
accurate 5080
Imm@@ 17798
canc@@ 14755
Vö@@ 29002
Sunday 686
— 1218
多 30732
perpet@@ 19162
ash@@ 4703
spells 19115
multip@@ 15687
deposits 9905
Helmut 20888
nati 24887
extends 9085
amaz@@ 9382
Support 9457
warrant 10891
Tes@@ 21896
kick 9983
sonic 20546
definitive 12029
fate 6726
Albani@@ 22670
fats 16917
260 8964
264 14985
養@@ 33294
end@@ 4018
prominent 6882
信 33295
sizes 5631
alternatively 11420
ּ 32142
sized 7384
器 31449
azione 21894
Meetings 25385
lends 21545
therein 14369
suff@@ 9021
proteins 12571
controll@@ 21831
criteri@@ 28846
它@@ 30194
ROM 24943
RON 24281
b@@ 251
hei@@ 7230
President-in-@@ 29957
Bull 16302
Eine 29608
medieval 6655
划@@ 32143
expansion 3739
Amar@@ 21751
Essa@@ 25650
mming 16383
thei@@ 10267
今 33296
progre@@ 15272
appl@@ 20109
OS@@ 8111
Ages 11633
recognized 4274
EAR@@ 25337
recognizes 15501
庁 32144
celebrations 10288
Bildung 28877
Coup@@ 26520
Γ 30799
San@@ 5280
h. 28693
ishing 7283
爪@@ 32145
tti@@ 23774
jing 25113
inned 19411
Lawrence 14988
innen 25639
tyran@@ 20184
noticed 6140
dero@@ 23897
inner 4192
notices 15954
basi@@ 15870
Ź@@ 31002
hy 16164
hr 9150
hs 24078
Ahma@@ 17027
Plaça 22166
ht 27530
administrators 15110
hi 8357
hn 18295
ho 8919
hl 17320
hm 25397
Über@@ 23287
overflow 22190
ha 4439
he 46
Industrial 9350
Mozambi@@ 29682
carriage 12617
Luc 25085
limit 2419
ி 33297
fu@@ 3405
ycle 15257
alar@@ 27901
balcony 3637
Au@@ 4249
唾@@ 34417
dein 29477
Aj@@ 22402
counterf@@ 29299
Brazi@@ 25926
usement 17218
such@@ 28101
а 14502
鮨 33298
♑ 34418
reno@@ 28074
appoint 11992
blogs 14583
验@@ 31817
cono@@ 23299
й@@ 24307
eini@@ 24358
Applic@@ 25396
dynamic 3800
kitchen@@ 21678
protest 5378
Toledo 21978
Wohl@@ 28633
infl@@ 14298
 30926
fronts 18207
Liverpool 9761
Klein 20351
Bür@@ 27150
anni@@ 15015
rescue 6030
downstream 20241
mile@@ 7659
activation 14824
bug@@ 20859
railways 11121
arran@@ 22428
stup@@ 21207
stavka 26954
reforms 2709
nat@@ 10170
affect 3561
alpine 11500
cion 19945
toni@@ 28634
companies 473
nai@@ 14109
correct 2297
Figu@@ 22818
功@@ 30857
cios 26794
ups 6817
clothes 5384
favoured 15037
 27118
Strasbourg 7089
债@@ 34419
르@@ 32146
Perform@@ 23303
Bla@@ 10564
Poles 19349
Agreements 16047
И 30529
乏@@ 33299
colourful 11444
nen 12066
Β@@ 29993
nel 10949
nem 29114
odi@@ 11238
ned 6184
nee 26159
Pub 25657
nea 22756
nez 21509
nex 27252
ney 2228
new 67
net 1539
neu 26327
ner 2188
nes 9444
evolving 15164
centric 18100
X-@@ 8148
never 644
drew 6465
drei 23264
interpret 12802
dazu 28525
oman 11408
compens@@ 20312
vulnerability 14167
Qaeda 9868
omas 22071
mini-@@ 12207
ส@@ 29863
Privacy 11300
έ 31818
Plas@@ 18191
county 9581
berian 16499
Silber@@ 28878
counts 7249
tels 21702
tely 12550
അ@@ 33300
Isra@@ 25787
Inhalte 29383
recommend 3119
type 850
tell 1256
士@@ 30927
posting 10659
詢@@ 34420
trilli@@ 26245
expose 16138
心@@ 30508
Cinque 24022
材@@ 32147
Nordic 9717
Welt@@ 27853
inhabited 13220
NOR@@ 22479
rights 385
sul@@ 11106
dec@@ 3199
Ţ@@ 28731
oled 19381
Arbeit 27666
olen 27628
트@@ 32570
indepen@@ 20787
ddle 14357
膀 34421
comfort@@ 27193
give 378
assent 20724
Gasthof 27472
just@@ 25912
bare@@ 22204
dikt@@ 28908
polio 21431
Phoenix 9038
renew@@ 27393
做@@ 30413
Cá@@ 28924
globalization 9881
Jack 8195
polis 6553
ر@@ 26303
મ@@ 33301
equi@@ 8263
35@@ 1322
ologist 7564
ar-@@ 7541
द@@ 31607
pizz@@ 16567
勢 32571
ativity 16996
emplo@@ 24843
dness 6231
談@@ 34422
t-in 24825
Frage 28949
men@@ 2445
cal@@ 2802
Co@@ 1138
 26181
keyboard 10152
Chemie 25901
recognis@@ 23536
flat-@@ 23187
シ 33302
Helen 19966
erland 24774
black@@ 6168
Kyrgy@@ 27626
ρ 30475
opho@@ 19323
Situ@@ 26318
unemployed 7952
academics 17268
Jacqu@@ 24212
indulge 17299
rhetoric 12600
brightness 18590
˫ 34423
Milan 6083
acoustic 13754
JP@@ 11383
luck 6459
interruption 18434
キ@@ 30653
enthusiasts 12131
hydro@@ 6679
taught 5732
П@@ 25709
dawn 13186
decree 14533
ሓ@@ 33303
Frankfur@@ 27848
Expansion 24660
arrogan@@ 14913
ল 33304
ύ@@ 29345
surprise 4592
Telem@@ 26236
ُ@@ 30387
免 34424
11.00 19166
Planet 13249
Drei@@ 28606
sovereign@@ 24113
eived 21652
logging 15985
kinder@@ 17289
iss 14036
messages 4011
Astrium 22940
ist 1115
isk 19254
ish 3586
iso 23950
isn 3154
ism 2150
impede 18995
isa 19550
loud 8487
ise 2812
ers@@ 15737
economists 9380
commerci@@ 12021
30,@@ 19404
Creative 17343
evalu@@ 22824
hood 13529
ECE 22553
ECB 6815
ECA 23188
girls 3710
ECJ 23371
ECH 24398
ECU 7823
ECT 19952
decentralised 19705
扣 34425
accredi@@ 29115
Consul@@ 13710
Lamanites 22671
deta@@ 13131
villages 4948
compani@@ 16412
의 33305
much-@@ 13886
贵@@ 31819
finitely 15544
chef 10233
stav@@ 25623
keyword 3208
Exemp@@ 28769
useum 26106
Infin@@ 25476
matter 741
浴 32148
sacrific@@ 14830
ª@@ 29967
∗ 29986
Lum@@ 20091
UK@@ 12590
childcare 18380
load@@ 22116
iland 26602
‭ 27993
支 34426
soweit 29629
spirit@@ 14226
甲@@ 34427
ù@@ 26016
Algerian 18299
Apu@@ 25401
Crow@@ 22617
medical 1578
sty@@ 9101
Maced@@ 23100
points 685
灣@@ 31071
gradu@@ 13370
wag@@ 13164
visitor 6733
惊@@ 32572
thirds 17540
judges 6704
García 24094
undoubtedly 7309
没@@ 30343
debts 10320
Visual 18458
ש@@ 30062
judged 10217
integrate 6765
folder 9163
Cyber@@ 23342
lö@@ 27044
rek@@ 28940
stop 1203
stos 20314
stol 23639
ston 4377
cartels 22026
Organization 7582
Match 23007
Palestinians 6552
oversi@@ 22350
comply 3972
Hessen 25546
越 30810
fields 1956
Issu@@ 18345
briefed 21695
雷 30800
fertility 15265
ч@@ 19612
inspir@@ 20761
ethical 7663
Istri@@ 16554
reference 2119
zones 7393
Cri@@ 6055
Run 19307
Bran@@ 11463
scrap 17617
Rue 18612
Visi@@ 16613
重@@ 30262
timeframe 21191
sorts 9633
对@@ 30487
瞳@@ 32149
Wellness 14710
anche 18085
richest 15070
assu@@ 16759
产@@ 30687
Kirche 28941
翻@@ 31820
prudential 23630
distinction 7937
protec@@ 13907
ມ@@ 32150
edle 28290
appeared 3026
訊 31821
Snow 19709
å@@ 7149
hygiene 10815
cens@@ 22658
springs 11757
edly 13623
ט@@ 30158
ek@@ 4099
recognises 12267
eradication 18324
stron@@ 9369
Arctic 10513
ghe@@ 25823
recognised 4533
Every@@ 15798
stresses 10426
Georgia 4695
Gy@@ 12591
quantities 8427
Vladimír 28480
sunshine 11434
oil-@@ 18209
cheap@@ 17000
DA 5787
作 31450
tano 25533
exception 4933
tank 7255
oo-@@ 25934
tane 26209
tana 12825
near 896
Persian 17488
ärm 28218
tant 11551
anchor 15720
ix 14246
℃ 30180
iz 17683
聖@@ 32151
metropolitan 16849
ip 22567
is 11
ir 3668
it 18
iv 21979
ii 17061
shame 9289
ik 13218
im 2360
il 2531
io 11785
Cha@@ 6706
ia 2544
Last 4680
ic 1412
ie 1950
id 2181
ig 10882
if 59
sof@@ 12109
bottles 10626
occupied 6171
fts@@ 26299
® 2259
advocate 10375
ECTION 24988
ཇ 34428
humili@@ 13300
Thunder@@ 23566
jetzt 26926
ノ 33306
kes@@ 13197
某@@ 31451
ultim@@ 23771
Lim@@ 10251
practices 2979
ɣ@@ 32152
femin@@ 11809
athle@@ 9682
facto 14414
過@@ 31173
allo@@ 14652
ciary 24819
itr@@ 17946
identify 3291
facts 3727
18.@@ 4057
regarded 4398
ogen@@ 28869
а@@ 11759
Wu@@ 18902
rega@@ 18387
designate 18746
opt 11783
芋@@ 33307
egal 27194
⁄ 30148
ops 5860
third-@@ 12959
ope 8085
Orte 29885
Lucca 23488
Du 24389
tsch 24801
confront 12447
Operator 23898
www 2102
conciliation 11062
ardin 22631
增@@ 32153
』 29888
ull@@ 18752
invoice 10498
Torto@@ 25954
Produkten 29899
theatre 5234
notification 8505
loyd 26064
Lam@@ 6969
测@@ 31174
burg 4552
explo@@ 5509
astic 12198
burn 6533
Sweden 2974
les@@ 6913
keeper 10942
bury 7710
oub@@ 26861
zur 17046
asting 14825
ź 28719
Austria 1779
top@@ 5229
zug 28642
islands 4488
zum 17423
Lugano 23650
Charter@@ 28725
formerly 9265
이 31293
塗@@ 33308
intellectual 4642
Blas@@ 28588
Draft 23815
kill@@ 20047
pec@@ 10277
价@@ 30654
TUR@@ 26869
IG@@ 8558
지@@ 30358
Å 25237
form 505
fora 22403
uted 7314
Doku@@ 27606
fore 7419
ford 4525
31st 2804
Survey 17040
er- 28347
Bauer 14843
uter 13469
utes 11011
fort 13774
ュ 34429
heri@@ 15111
PH@@ 13715
zard 21597
delete 8307
ห@@ 29947
Publishing 20830
ĝ@@ 30476
classic 3855
Romanian 10070
fashioned 16454
ship 1775
Ë@@ 29496
件@@ 31822
Portugu@@ 28298
约 31823
vent@@ 7565
명@@ 34430
Sta@@ 9014
િ@@ 33309
digital 1927
産@@ 32154
pictu@@ 20621
Ether@@ 27512
IT@@ 3550
dier 16028
dies 5748
felt 2295
homem@@ 13407
diet 6407
fell 2777
dien 23982
exported 13403
EIN@@ 25260
authorities 895
transfers 7108
feld 11316
died 1934
String 25191
billion 958
jak@@ 24585
assume 4700
authorit@@ 17356
ments@@ 20995
Second 5955
intelli@@ 21231
unding 9282
skis 16766
根@@ 30928
invent 18787
skin 2607
skie 25480
eff@@ 10306
Israeli@@ 12624
för@@ 26645
editors 13741
markt 23317
answered 4515
stran@@ 6946
marks 4736
Atlanta 11430
bili@@ 15593
Be@@ 1815
ert 5086
y@@ 367
string 6176
Benal@@ 25976
Plus 9697
燥@@ 33310
弊@@ 34431
Marin@@ 20536
assign@@ 28774
Where 15977
terrori@@ 26113
to-@@ 4381
gramm@@ 24295
1996 3110
travels 12079
怕@@ 31824
reci@@ 20804
М@@ 27886
besch@@ 24040
enshr@@ 25068
Conduct 18833
ally-@@ 11595
Ferrero-Waldner 21731
heres 21571
adverti@@ 8816
吾@@ 33311
Beth@@ 13542
template 10584
Back@@ 4829
unrestricted 21479
進@@ 32573
transportation 4197
Hom@@ 7732
Kha@@ 11596
dafür 29577
ｂ@@ 33312
congestion 17194
Mom@@ 21311
ώ 30235
tranquilli@@ 29248
ム@@ 30733
yn@@ 5775
exploitation 6320
響@@ 34432
stro@@ 7407
危@@ 30801
genuinely 9532
ahn@@ 23115
Matrix 25147
⒉ 34433
modul 29640
peculi@@ 21350
regeneration 15910
lesen 27195
modus 26319
suspec@@ 26031
histori@@ 13032
exclusi@@ 23050
troops 3919
suspen@@ 15392
harmon@@ 17253
计@@ 31072
consoli@@ 26706
scenarios 11653
财@@ 31294
Visa 15179
ee@@ 10247
裁 34434
ood 20138
節@@ 33313
Ben 7534
ffer@@ 28210
<S> 0
ool 18980
curriculum 16308
Orlando 14787
Bed 11203
郑 33314
oot 26302
rigid 14132
oos 14455
olive 5170
apped 9600
effort 1796
capturing 18652
jack@@ 8444
restor@@ 22602
Daimler@@ 25947
Abs 27991
政@@ 32155
growing 1497
urious 24550
Children 7256
client@@ 19145
ke@@ 3447
mented 10571
crazy 9451
清 32574
chel@@ 25180
强@@ 31175
e@@ 447
Cand@@ 19994
geta@@ 21126
鸭@@ 33315
Dutch 3241
islat@@ 28902
YOUR 22098
chec@@ 25667
pink 9469
ʒ@@ 32156
rays 11395
ḥ 31608
ping 4873
pine 9811
chemical 3612
hostage 17595
Ć@@ 29968
pure 4935
tile 8649
TM@@ 20739
designer 6212
geomet@@ 18381
심@@ 34435
ĉ@@ 30623
designed 1114
缴@@ 34436
gros 27111
aband@@ 27430
guys 5810
grow 2944
мо@@ 23441
outline 12217
maybe 2708
inhabitants 4009
养 34437
gesture 13412
Randzio-Plath 25767
牲@@ 34438
tion-@@ 9721
pointed 3909
Mo@@ 1767
entity 8198
stability 2269
nbsp 9314
cuts 3720
differs 15613
intenance 21916
consolidating 18858
pointer 17864
encompasses 17749
ξ@@ 29414
睛@@ 33316
Educ@@ 21293
д 27242
finance 2491
ు@@ 33317
sooner 10539
aspirations 13508
乘 33318
killed 2160
Segment 23124
ard-@@ 19029
das@@ 11066
pizza 14333
有 31295
anticip@@ 15724
Luz 22359
monet@@ 25640
催@@ 34439
deva@@ 28561
Ђ@@ 28821
adis 24601
Split 16668
adi@@ 6538
Kies@@ 27418
Augsburg 20753
interference 10677
Nacht 26935
革@@ 31452
stupid 13552
imperative 11851
ز@@ 29811
Stone 13449
earlier 1684
conduc@@ 10970
monster 15502
Intel@@ 28854
mechanisms 4622
Tam@@ 9487
Т 30929
tions@@ 18066
Braunschwei@@ 22521
bereits 28015
Ü 29668
Loire 21515
切@@ 30388
language 973
di@@ 532
App 15615
listings 9254
ine@@ 3836
Má@@ 24408
exu@@ 17505
SDSS 27089
ー 30272
Compreh@@ 23372
exotic 10445
ISS 17541
Parque 23517
utop@@ 17895
Detail 28825
IST 24360
XIII 23962
ISO 4920
EASA 27253
carry 1915
corporations 9048
ISA 14497
म@@ 30930
ISE 24535
☞ 30931
arch 10472
unduly 22964
➳ 34440
Inflation 29175
Post 3755
Crusher 26772
Emi@@ 17998
oil@@ 22364
－ 30305
continuous 4816
accurately 12099
massages 14232
Eurobarometer 21734
Möglichkeit 29384
wers 6437
analyze 12098
状@@ 31073
wert 27125
诫 33320
wery 16142
ventura 27169
venture 5938
were 78
werk 16807
portrait 10062
spar@@ 12070
sula 23775
personalized 12288
N@@ 401
Articles 10668
pain 3726
Name 12937
investigations 7290
und-@@ 18692
剑 32575
000@@ 4632
pair 5763
chal@@ 15667
blin@@ 9068
refunds 18796
fills 14501
幡@@ 33322
پ@@ 30624
programm@@ 11348
water@@ 4247
Psych@@ 8413
Dak@@ 15379
contemporary 3210
Tex@@ 12586
BERLIN 26052
Tem@@ 18289
Gate 10694
K@@ 428
bringen 29215
Fund@@ 25086
pump 9583
black 1791
ICK@@ 24968
hectare 18459
禹 33323
haz@@ 17047
Spir@@ 20673
Romantik 28847
Install@@ 24169
Druck@@ 27334
Fuji@@ 28405
Service-@@ 27066
Saar@@ 19897
gische 28132
rupt 9165
華@@ 30566
jus@@ 20426
刚@@ 30734
elimin@@ 20833
285.@@ 27818
빅@@ 33324
summary 7169
FOR@@ 15476
ó 10354
characteristic 7040
communicated 12353
neg@@ 11764
kernel 9311
honesty 16388
world-@@ 15679
calendar 3556
撮@@ 32576
vá@@ 22257
behind 1161
樣@@ 34441
reading 2092
checks 6039
浜@@ 32157
suspi@@ 20747
OT@@ 7716
tup 20105
ju 18115
tur 21453
tus 10019
killing 5065
jn 22094
jo 9125
单 32577
ji 8157
tun 25331
jk 11225
je 4450
tub 10811
js 23051
ja 3538
9396 27285
dates 2890
区 30428
landscapes 8603
according 476
ț@@ 30087
Tours 17983
dated 3324
μ 30206
holders 7024
Employment 6717
somit 29761
tum 24508
Kro@@ 20048
cancer 2695
І 30218
cancel 7643
custody 10309
Mur@@ 4072
arts 4818
Signal@@ 29817
acken 27920
arta 16862
riteri@@ 27689
aufgrund 29520
Start@@ 28226
arte 21104
Pent@@ 9584
borders 2988
represent@@ 24409
graveyard 22036
mix@@ 13349
Post-@@ 24079
offered 1664
ọ 32578
cell@@ 6425
ď 30326
j@@ 610
those 174
René 23105
च@@ 31296
Marshall 14401
compile 16724
部 31609
pment 24783
margin 6442
Ag@@ 13213
chst@@ 28335
Nutzung 29258
belo@@ 27296
Transfer 20257
sincere 11372
PAGEREF 22893
middle 2140
众 33325
baths 11901
Valencia 6023
wisely 20754
➜ 34442
Bud@@ 16607
Plant 18306
Plans 22264
insofar 13572
same 235
authentication 18676
A3@@ 14094
Nazis 15344
章@@ 34627
령 33326
intermediary 20814
disappointment 12195
Salvador 14726
品@@ 31825
機@@ 32158
totally 3555
Extreme 24200
Evangeli@@ 21980
drain 14344
HA@@ 19938
HT@@ 13510
accountable 12386
Rent 23025
</S> 0
Ar@@ 1569
Verfahren 29913
cycli@@ 19933
gangs 18841
ɤ@@ 32159
ть 24798
ethni@@ 19096
钟@@ 33327
Acade@@ 20704
max@@ 13879
依@@ 32160
bahn@@ 26653
af@@ 2926
bank 1450
Ѓ@@ 28576
Rück@@ 26833
Banquet 19613
Island 4282
A4-00@@ 25773
ご 33328
信@@ 30306
7@@ 254
chamber 7460
audience 3391
та 20188
nose 9909
Rout@@ 28429
voluntarily 14172
specifies 19180
dale 13063
妹@@ 34443
Democracy 13231
ingly 3094
陀@@ 32161
specified 4958
New 522
Net 12303
Neu 29346
users 1045
gross 5871
娣 33329
fashi@@ 23294
ค@@ 29669
sion@@ 4110
tailor-made 16821
aci@@ 5906
추@@ 31003
particles 10427
sug@@ 21679
鷹@@ 33330
素 33331
seconds 706
imm@@ 20214
broken 4178
drums 15078
4@@ 188
veröffentlicht 29391
roaming 18155
refers 4830
feeds 15659
insu@@ 10685
stations 3339
VAL@@ 23984
island 1518
stauran@@ 22873
meaning 2625
Trade 3475
othy 16151
Check-in 28094
Gour@@ 24820
organizers 13014
disen@@ 20745
lands 4437
ῖ@@ 31826
SK@@ 17750
Ego@@ 29129
盖 34444
HTML-@@ 29323
dispat@@ 16744
lande 16443
Sir@@ 17733
Rotterdam 11130
pre@@ 1005
∞ 29630
pharmaceutical 7059
uri@@ 6965
驶@@ 32579
ө@@ 30932
relaunch 22194
arte@@ 19824
passports 18371
求 32580
flat-screen 9300
Höf@@ 29848
丈@@ 34445
pleased 2180
Fall@@ 22647
2005-@@ 18411
bacteri@@ 14392
evolu@@ 17813
Antoine 21853
facilit@@ 23802
Syri@@ 16326
manuel 18868
Blues 16444
deadlock 21238
霜@@ 33332
Allgemeine 24414
漏@@ 33333
videos 4612
詳@@ 32162
实@@ 30567
importing 19389
lifetime 8373
Tier@@ 22438
Н 30414
Grö@@ 28308
鸡 33334
assessing 10523
hybrid 11292
field 612
Barcelona-@@ 29027
捏@@ 34446
students 1257
ה@@ 29977
brands 5304
zien 29229
Major 13642
remote 4607
Myst@@ 20567
occ@@ 23016
豆@@ 33335
hugely 17580
tun@@ 12832
jk@@ 22047
deluxe 20114
starting 1519
单@@ 31176
represent 2843
..... 15473
cooperative 11476
Cash@@ 27105
lian 11667
Man@@ 2980
allowances 14591
reluctant 14236
ison@@ 19793
La@@ 4477
kanal 29576
Skopje 25835
tranquillity 18666
方 31177
subsidiarity 7656
Veterinary 22999
Ventures 24971
骗@@ 33336
Standards 15538
Schla@@ 24603
fall 1517
霊@@ 33337
Japan@@ 27119
bisher 29747
Stun@@ 28925
Portals 28926
bration 26918
Peripher@@ 29702
mothers 8849
Arabs 16500
reminding 20330
Course 8462
ки 26093
Auth@@ 15887
economically 7300
unes 23981
Vie@@ 3263
colli@@ 10304
Department 2655
Only 16901
titles 7453
ck@@ 1023
excur@@ 29116
ġ 31611
₠ 33338
კ@@ 31074
stood 4205
extern@@ 14791
Mann@@ 14505
ా@@ 32163
Liberties 18142
Ban@@ 6134
ER@@ 5070
outgoing 17572
mmet@@ 29586
K 1883
Cross@@ 22340
gge 23343
TEM@@ 24731
operating 1534
vals 11048
beu@@ 28458
城 30655
州 30933
search 1210
geli@@ 27297
imple@@ 22421
diagra@@ 14128
Süd 25278
airport 1694
stelle 26442
narrow 5561
kirchen 22690
iron@@ 14014
prejudge 25676
transit 7854
enas 20315
sanction 20860
establish 2299
Typ@@ 22951
cultivation 9529
Dex@@ 24291
achieving 4111
sondern 28909
π@@ 22831
Boeing 12886
pr@@ 3660
イ@@ 30021
레@@ 32164
controlling 7874
German@@ 14206
Router 28219
fresh@@ 9220
auff@@ 21659
town 700
none 3382
範@@ 32581
der 815
des 978
det 11682
dev 12401
dei 12721
Barnier 17345
del 2120
dem 9159
den 1828
strategies 3861
dec 21001
ded 1139
dee 18770
purchaser 12743
purchases 9310
compare 6665
Wien 14007
Deli@@ 13496
Reg@@ 14490
norm@@ 23430
purchased 5880
litres 15129
乘@@ 34447
Reh@@ 21680
belli@@ 14687
圾@@ 33339
sch@@ 2538
proble@@ 20399
sich@@ 24965
河@@ 32165
par 5078
ue@@ 23635
charme 28046
connectivity 15486
Bé@@ 22276
blood 2034
feb@@ 22792
Sophia 23567
UP@@ 5494
pilgri@@ 8441
coat 10048
八 31453
coal 6019
Notre 18658
pleasure 3614
ulty 9389
What 5440
existence 3150
staing 26134
latt 28067
ement 4493
ই 33340
energies 8266
SEPA 25238
klini@@ 29146
confer@@ 19995
桩@@ 32166
late 1375
est-@@ 16244
seeking 2823
李 33341
walls 3424
Vatican 8341
struggling 7904
ẋ@@ 33342
token 17964
habits 10487
priv@@ 14898
Disk 24878
EuropeAid 28095
iden 15978
everyone 1216
汴@@ 33343
idea 1098
elec@@ 7233
頑@@ 32582
insurance 1794
ƒ@@ 29938
initiatives 2707
funding 1735
leaf@@ 14919
Val@@ 3773
neur@@ 20600
projected 10876
GO@@ 8173
participants 2091
Ukraine 2412
pleasant 3078
lap@@ 13322
Mega@@ 24686
disposition 18571
取 34448
♣ 30735
Rainer 21879
recast 21315
册@@ 34449
NC@@ 18578
名@@ 30509
Ben@@ 5019
concluded 3562
适 34450
Far@@ 5709
wagen 28870
nach 16894
著@@ 34451
spot@@ 5472
轉@@ 34452
Penn@@ 24243
elevator 12869
wages 6685
kok 29547
kom 24430
Algeria 10305
kon 21539
twenty 6569
ʾ@@ 33344
construct 10434
obligatory 14711
paint 7744
chter@@ 24899
kop 29302
kos 19512
kow 26686
kov 12978
mentality 16059
selector 25192
燗 33346
b 354
读 32583
Auschwi@@ 13606
interactive 6795
licop@@ 25264
Kit@@ 9998
⌋ 34453
ebenfalls 29903
麻@@ 33347
confirms 9025
paths 6598
Press@@ 24133
Virginia 7885
extracted 17610
province 4570
adver@@ 15220
ቀ@@ 31075
scop@@ 15195
Governor 14534
medium-sized 4854
depths 14161
Communications 9778
kW 11803
significant 1175
bbed 10817
seek@@ 21516
ka 2351
kg 2392
ming@@ 20510
ke 1083
Egypt 2774
陽 31610
ki 2931
humanitarian 3365
ko 4963
alition 15690
km 261
ks 2059
압@@ 33348
ku 15367
kt 17855
weigh 13166
ky 4364
Robinson 13399
Regime 28371
Geomet@@ 29104
Mass@@ 16531
shin@@ 27871
gates 8003
Troj@@ 24643
scattered 12218
24.@@ 4194
carefully 3380
云@@ 31612
Sensor 27866
leh@@ 17103
nervous 9818
号@@ 34454
Coh@@ 17445
freedoms 7556
generators 18875
Tol@@ 15888
вы@@ 26413
overla@@ 27254
dust 7366
permission 5079
Bris@@ 11457
ст@@ 18226
cheaper 7884
courage 6070
Reich 16284
Verfügung 29244
attle 24218
restart 17104
gest@@ 14688
transitional 8823
standardisation 18416
▾ 32518
gated 10276
ones@@ 25859
Neo@@ 22799
Klo@@ 22037
tended 13991
individual 762
掃 34455
tender 8224
feared 11315
Jazz@@ 27513
TCP 21473
ớ@@ 30374
Ǎ@@ 32584
edings 25028
κ 31178
critic@@ 18762
rut@@ 27162
heter@@ 23640
я@@ 18844
interfaces 12171
ika 19104
drawings 8738
alog 24989
vier@@ 25239
grandio@@ 25437
ž@@ 11721
alos 24858
Rossa 26053
fish@@ 16469
practic@@ 8159
Rossi 23067
absolu@@ 26818
supply 1403
recycling 8222
Savary 26854
openness 8846
ᶛ 34456
throughout 1168
Disney 12361
dise@@ 21806
素@@ 31297
ぶ@@ 31298
Dob@@ 18540
create 724
creativity 7023
side-@@ 14890
secret 3657
RT@@ 15018
rett 14979
Jah@@ 24454
tering 7544
rety 28950
4 109
铁 33349
reali@@ 7045
Casino 8097
priced 11123
understand 1124
realms 21079
one-@@ 2996
prices 878
Feed 25624
bild 27341
fur 15038
bill 3677
tolerate 15132
睬 34457
タ 32585
inum 16323
fun 1959
ful 2480
門 32167
alize 8743
larger 2416
Khan 13702
cents 8020
wollen 23537
encountered 11433
decoration 10311
id@@ 6543
harass@@ 22708
less@@ 13380
eland 12788
ຽ@@ 32168
suggests 5415
Zimmer 20529
chim@@ 15437
ω 29948
emphasize 12192
copying 15235
許@@ 31299
Motor 13543
cher@@ 4822
assignment 12966
糖@@ 32586
moment 1187
aggregate 14868
Flight 15900
Reding 17821
hows 27757
globalised 20740
herein@@ 21643
spent 2093
emer@@ 14049
landmark 12342
revising 21720
chemistry 10912
Tools 17325
spend 2011
Bremen 11853
atomic 14594
vag@@ 17764
injuries 6503
alignment 15878
alternate 16688
thaus 25774
逢@@ 33350
Moh@@ 13463
voll 28532
excited 8346
Debian-@@ 28242
prepar@@ 27585
い 30048
matters 2082
Turk@@ 19808
Position 19765
B4-0@@ 25332
据@@ 31827
nutri@@ 10739
one@@ 9882
temp@@ 10108
Test@@ 6682
Phan@@ 21480
朔 33351
喂 33352
Java 9770
ett@@ 7071
extingu@@ 18215
back 255
bach 8789
examples 3381
under-@@ 11586
bruch 29042
gon@@ 8941
pet 9477
laimed 23008
integration 1837
per 258
pes 7825
pel 25323
Pag@@ 22700
Ott@@ 16947
pei 20987
ped 4581
pee 22568
peg 15511
Gabri@@ 20319
Computers 27618
Regi@@ 10477
場@@ 31828
то 26231
universi@@ 25168
decommissioning 21581
DV@@ 13755
DA@@ 7157
beans 13160
GHz 20113
consequently 4567
Vassili@@ 28803
scripts 13415
Kitzbühel 25101
neutrality 18814
ttering 22110
parado@@ 28782
H-0@@ 16906
Non@@ 23409
infected 10103
waff@@ 23762
Como 23322
forward 849
cript 14858
Yor@@ 16822
년 29587
batt@@ 11701
adjusting 16869
timetable 8655
rejection 9888
neys 10625
ktion 25304
impover@@ 17734
engineering 3129
EC-@@ 21146
prevail 13484
denying 16118
Versailles 20435
Recher@@ 29189
MP@@ 5675
અ@@ 33353
functionality 6394
Neigh@@ 25175
MM@@ 14022
explaining 11249
Astri@@ 26387
cur@@ 2142
gular 11173
metho@@ 22258
etus 22996
apparte@@ 28951
Iris@@ 26328
best@@ 13965
Gött@@ 21454
Scott 7261
metro@@ 13129
engine@@ 27031
minors 14896
fine-@@ 21286
führt 28783
räger 29079
Saint 4655
Tab@@ 13174
query 13480
Isle 18797
mitten 26816
exag@@ 26819
Business 3344
Siemens 11063
ذ@@ 30130
ambience 11613
ALDE 18197
ula@@ 22738
Istanbul 9076
asp@@ 9383
ḳ@@ 33354
ニ@@ 30688
grid 7323
putting 3083
terri@@ 8879
ソ@@ 32169
Engine@@ 23189
severely 10678
腰@@ 33319
respectful 17759
wall@@ 8997
LAN@@ 15853
Kop@@ 20970
Defense 9366
정@@ 32587
Select 20459
Turkey 1631
encounter@@ 24850
enhaus 27553
crop 9823
strategically 15961
 34458
nesty 23077
6-00@@ 24917
兰 34459
giving 1581
Fl@@ 7785
enjoyed 4253
ต@@ 30093
Telefónica 27758
Bill@@ 19618
Ф@@ 29914
sarge@@ 26635
點@@ 33355
broker 15565
Hussein 12677
nacht 26942
plan@@ 6241
reta@@ 11459
remark 14289
ALS 24006
demo@@ 14111
named 2611
sme@@ 18920
ption 21378
SMS 14124
Ach@@ 20974
private 544
semin@@ 21886
names 2673
ክ@@ 31300
manns 29358
SME 14611
LED-@@ 28831
Status 20036
… 987
seamless 18485
ṛ@@ 32170
ō@@ 27923
oils 11784
ICT@@ 21474
themselves 888
为 31301
linge 29400
KUKA 20301
Galway 24170
脖@@ 33356
Romul@@ 26649
limi@@ 29777
્ 32171
sehen 26997
hatt@@ 27502
arranging 19675
harvest 10132
Loy@@ 25918
τ@@ 17628
Zh@@ 22294
Maastricht 10519
praise 8122
સ@@ 33357
azz@@ 18294
Nicole 19460
ศ@@ 29488
prohibiting 22581
proportions 16135
咎@@ 34460
reconstructed 17967
effectively 2941
contempt 18478
Lem@@ 18244
ล 30510
aff 26076
ь@@ 25006
regions 1366
冰 32172
winners 6105
Authorities 21335
ŵ 33358
临@@ 32588
aquaculture 18966
buildings 2052
Technical 9482
annexed 20408
philosophy 5061
essenger 19383
tresses 15783
û@@ 20212
鄉@@ 33359
annexes 24459
ټ@@ 32173
mentari@@ 27859
摩 31829
館@@ 34461
exempl@@ 29280
addiction 14255
丹@@ 31179
modernis@@ 22815
in-house 11282
meter 8420
sions 2949
Buddha 15550
Hermann 20147
Heads 9506
kowski 22849
Mallorca 9562
industries 3567
sic 10032
ld 19878
le 520
§ 8354
la 758
lo 6337
ll 1878
acres 13312
lt 5652
lu 21566
ls 3010
純@@ 33360
criminal 2919
Klein@@ 23295
ly 623
Porto 10128
ɹ@@ 32174
Porte 22974
沙@@ 32589
Porta 22880
ϑ 33361
tical 5338
mandate 5062
Ports 25884
strive 9404
Adobe 10443
Mongo@@ 23134
l. 7489
esc@@ 8724
Deck 26433
rought 20250
қ@@ 30802
or@@ 763
ли@@ 23041
如 34462
غ@@ 30005
Mit@@ 5908
programmed 16470
WACK@@ 26192
們@@ 34463
programmes 1697
teilweise 29923
rez 14727
rey 9831
rer 21343
announces 14123
defend 4773
rew 15046
ret 9863
lé 21432
rei 27538
ren 7291
and@@ 2999
rel 13853
rem 21903
electronics 7645
rea 17128
immersed 16575
red 876
ree 21990
gener@@ 5670
scrupul@@ 20907
rung 26884
frank 19667
är@@ 13838
nichts 29315
⇒ 29827
rit@@ 5000
nest@@ 24471
likelihood 15340
ნ 32175
Anti-@@ 12974
cured 15094
時@@ 30749
deprived 13087
1,@@ 1520
신@@ 31613
retain 7035
VER@@ 13847
retail 4577
Ž 30226
finest 8759
Administration 6982
ort@@ 21820
ས@@ 33362
ç@@ 9136
anzeigen 28980
용 33363
pots 13069
nois@@ 20686
oline 9741
oling 13817
olina 8316
converti@@ 17009
sib@@ 11718
Comple@@ 21389
environmental 1030
DVB-@@ 24114
Њ@@ 29892
Commit@@ 28367
Universal 11494
Cluster 25438
ひ 33364
round@@ 14572
Engineer 23571
Nan@@ 19241
대@@ 31830
ladi@@ 23410
comfortable 1231
tide 12701
comfortably 9302
Kreuz 28963
Flex 24563
Airways 10043
optimum 9720
gravity 12667
Transform@@ 27872
CR@@ 6851
‽ 33365
Bo@@ 1571
婁 33366
efully 24499
eight 2325
horse@@ 14525
station@@ 11820
fixi@@ 25919
Ķ@@ 30210
enser 25232
enses 17295
enthusiastic 11128
Ji@@ 9757
百@@ 31614
absurd 12290
amour@@ 26732
校@@ 32590
ac@@ 970
Ama@@ 15755
supported 1913
one-off 18372
gestellt 28041
Castle 6204
ono@@ 22410
ambiguity 21983
equilibrium 17516
cooperation 687
แ@@ 30009
Yugosla@@ 27653
splan@@ 25768
aforementioned 15345
ジ 31076
timing 9333
areas 468
erei 27956
gical 13851
organ 8523
132 10799
cached 24099
encounters 15332
久@@ 31302
gnis@@ 27957
Effici@@ 28397
ficial 16782
FIFA 15402
conform 15656
gefallen 29716
Area 5538
national 403
confort 27394
Ka@@ 6098
exploited 11144
ammer 24054
drin@@ 17935
Juli 10689
discounts 10400
vul@@ 14679
anium 20307
vation 6822
ington 8752
July 455
sa@@ 1623
в@@ 14609
寻@@ 32591
implementing 3540
optional 8496
韻 33367
Krakow 20613
instant 9711
freely 6193
bak@@ 7038
attributed 10848
fulfilled 7017
assure 6824
conquered 17369
passing 4701
Gad@@ 18912
glorious 14199
comment 2617
Gru@@ 17167
ら 30736
commend 17459
vels 12072
atment 19652
Holiday 10764
earning 13141
23,@@ 14050
deliberation 23755
Lithuanian 18453
tuous 16358
Ģ@@ 30596
aristo@@ 18613
Communities 12673
स 33368
▻ 29973
arises 9944
Center 2187
essentially 5815
ST@@ 3991
Sella@@ 26802
arised 19884
Villas 23379
Haupt@@ 26262
arisen 17036
leyball 29285
SY@@ 17670
s.@@ 2692
agan 17393
value 726
ggle 16939
GAR@@ 23063
Rau@@ 18208
磨 33369
Raf@@ 11776
ῦ@@ 33370
respected 5612
Optim@@ 25662
profit@@ 18283
tancy 23992
EN-@@ 28004
Mei@@ 14168
处@@ 31831
progressing 19614
Sle@@ 18941
Í@@ 15496
Med@@ 7431
shuttle 6678
Phy@@ 20141
¾ 26972
Orden 27725
material 1205
sein@@ 28732
Solar@@ 16366
consequ@@ 14659
Liter@@ 5539
Wir@@ 21621
ゾ@@ 33371
proportion@@ 20807
Order 6015
center 1169
❧ 33372
恩 34464
weapon 8174
Plug-@@ 29324
procurement 6546
fix@@ 11404
creators 18732
latest 1077
Rand@@ 14159
underlying 6414
anti@@ 3725
seats 4682
protecting 4755
際 33373
EW@@ 14498
gher 26419
ED@@ 6053
acht@@ 21847
Friday 517
达@@ 31181
Niel@@ 21799
bench 11031
citizen 5593
registri@@ 21767
tests 3064
駅 30803
介 33374
judiciary 13629
deployment 9277
 34465
insert 11326
Ep@@ 13257
curricul@@ 24487
works 823
則@@ 33375
Bac@@ 20638
Scala 23202
Vertrags@@ 29752
貌 33376
deci@@ 9710
wholes@@ 16185
Aly@@ 25044
Editor 16315
ﾖ 34466
supportive 14745
Mike 7088
est 1420
ess 2016
dunes 16101
shelter 9712
ese 3595
esa 13037
Ver@@ 2831
esi 22502
esh 17829
slight 9268
sberg 22959
deep-@@ 16243
Heating 14757
VA 13147
worthy 5500
28-@@ 7486
Beck@@ 14015
periodically 19060
panel 4321
anded 15190
Finc@@ 24716
andel 28388
必@@ 30327
anden 28964
Л@@ 29266
モ@@ 31303
andes 26753
ander 11180
'E@@ 16054
Questions 17441
館 31304
开 32592
eins 21244
manship 12289
billions 9377
tackle 4998
帐@@ 32593
eine 7477
eing 8469
緊@@ 34467
Oktober 6132
Chr@@ 13307
ko@@ 3859
1986 6728
1987 6652
1984 7140
1985 6692
1982 7498
1983 7843
1980 6332
1981 7946
1988 5960
1989 4584
Φ 30450
Chile 7507
Child 10832
tizen 25386
inski 23914
buy 1768
bus 1584
Der 19221
Des 23271
but 43
安@@ 30375
Del 17735
COMM@@ 21856
bug 8979
Zur@@ 26536
partially 8231
embargo 15079
酒@@ 30804
wise 5899
Wall 5690
wish 960
盡@@ 34468
variations 10862
VoIP 23763
Contro@@ 29015
minutes 637
Insurance 12263
æ@@ 12772
gesellschaft 24109
brochures 16139
Sym@@ 21653
Instrument 19710
ｈ@@ 33377
83 2304
g@@ 372
Colombian 19416
reform@@ 16712
gei@@ 24249
eili@@ 25406
aning 14771
声@@ 34469
ensive 21296
Gord@@ 26455
ʔ@@ 32176
Phase 18331
pneum@@ 17881
Insel 29199
loop@@ 21845
variation 14607
Act 3659
execu@@ 25966
intra@@ 19970
prioriti@@ 20918
sentiment 13992
都@@ 30389
Reu@@ 4770
Janu@@ 24128
ANCE 20601
hikes 16112
sear@@ 12920
servative 29135
biotechnology 12051
amm@@ 10725
baked 15969
莫@@ 34471
inary 14734
tor@@ 2513
d@@ 324
Boutique 22234
implants 16088
Continental 15162
hath 10707
料 31182
complic@@ 12866
hate 9370
dera 22537
Winter 10617
0.@@ 477
un-@@ 19664
lau@@ 3145
lab@@ 6707
Philharmon@@ 13094
Uhr 2326
pride 7614
Ї@@ 34472
ế 31305
ถ@@ 30451
funda@@ 27994
Industry 6081
geon 12534
moist@@ 25054
every 304
upstream 19782
VN 28539
Moon 12375
话 30251
opath@@ 15521
encounter 5463
Restaurants 25012
tech-@@ 26139
abu@@ 17144
ط@@ 30100
distinc@@ 16525
usin@@ 27035
enjoy 708
容@@ 30805
leaders 1700
pe-@@ 19255
Festival 3652
weddings 16455
estimates 6136
talks 2881
persuade 12176
Park@@ 13995
provi@@ 16324
estimated 3631
sement 17041
PP@@ 12622
ぇ 33378
Stal@@ 18806
specification 12463
beaten 9678
terti@@ 23993
Schi@@ 19157
conduct 3368
cade@@ 25058
pen@@ 2730
Made 20139
lers 9233
か 31004
回@@ 30429
hundreds 3127
Ferrari 15309
path 2179
蹟 33379
elek@@ 25075
teen@@ 9031
auction 8553
stube 28336
景 32177
abolition 11338
gh@@ 1713
規@@ 33380
jav@@ 21225
Infineon 22538
erected 13596
visible 3892
ge@@ 1146
售 34473
effler 25990
m. 9925
双@@ 31077
discrepancies 22301
E-Mail 20441
III@@ 27228
m3 21107
m2 4154
üs@@ 19888
breathe 13497
来 30858
dor@@ 4868
real-time 12437
outdated 16895
teous 12894
shoot 8073
onie 26909
mg 10203
ma 2630
onia 8771
onic 7680
mm 984
ml 5199
mo 5640
onio 26504
mi 6687
Capp@@ 23373
onik 25018
mt 16927
Bahnhof 27586
kte 22771
mp 8167
ms 1841
ank@@ 15616
my 112
坡@@ 32178
Palette 29609
Motel 25677
Sara 21475
Preis@@ 27578
🍂 34474
coni 23612
Lord 1219
restri@@ 18981
distorting 22606
ena 5264
strom 21308
end 277
ene 6677
eng 12431
paramilit@@ 21328
legislat@@ 27696
eno 17467
ums@@ 19138
writers 8076
ent 1433
enz 13279
charging 9475
ക@@ 33381
Modi@@ 19462
thor@@ 9984
mess 14407
沈@@ 32594
demanding 4751
mesh 20242
ented 12047
耸@@ 33382
enten 27837
en- 28503
ৰ 33383
algorithms 19140
entes 19911
enter 1550
Rain@@ 19192
Asi@@ 10377
Stop 19567
guidance 5865
Directives 14481
Toi@@ 27447
thesis 8678
Weise 28102
sidi@@ 23951
biofuels 14528
Urban 14642
cornerst@@ 23941
Palmas 21797
hypocrisy 18559
expectations 3350
Here 13440
fade 21228
Herr 27050
Bayern 19881
ф 30530
tten@@ 26973
Agrit@@ 24687
P@@ 356
BM@@ 11260
notified 7064
Let@@ 11055
० 34475
Moritz 21654
Scar@@ 20861
filling 7782
victory 3141
entic@@ 21554
Lei@@ 7499
signing 5851
Schei@@ 25287
epi@@ 12732
ttery 8874
combining 8610
Swi@@ 16174
τ 30463
Chap@@ 18617
zentrum 26284
gon 8961
Holy 2922
Gusta@@ 18192
god 12014
washed 12371
duction 10896
millennium 14977
逆@@ 33385
got 956
washer 11310
Hold 21628
gos 12754
gor 18314
Cuban 12658
streamline 21672
sias 29063
呑@@ 33386
AFP 12882
Zusammenarbeit 28572
MEDA 21942
yable 27147
vigor@@ 18962
inexpensive 17229
ì 17494
priorities 3015
소@@ 34476
Embassy 12000
ピ@@ 32595
Belar@@ 25853
cooperating 14599
顕@@ 34477
Nicolas 14358
enix 27055
already 339
stab@@ 13526
Working 11804
coding 18170
Jam@@ 7830
titled 13158
Tuber@@ 28483
Cocktail 28662
letting 10350
resili@@ 20609
Medina 20180
ླ 33387
Unterstützung 29785
Afghan 7497
ceiling 6555
ষ 33388
Kar@@ 3537
诺@@ 33389
tool 2278
Neum@@ 22812
serve 2008
took 652
compressor 21465
western 3332
Fun 22979
Grön@@ 26304
ぢ 33390
alt@@ 17347
Features 24888
Rou@@ 13908
alists 7051
Unix 21337
1600 14973
Unit 12328
fashion 3401
lawyer 5969
Person 22432
talking 2452
ckness 16793
monit@@ 28886
regulate 9832
kow@@ 25029
firmware 20159
- 25
elegance 11274
oriented 5048
upholding 22423
essly 16257
effectiveness 4847
所@@ 30159
Alarm 26182
ohne 23139
gments 23585
trotz 29647
coin 11447
abe 23496
dru@@ 6925
treats 14477
flow 3183
treaty 5475
orderly 17641
chie@@ 14227
enterprise 5109
DIS@@ 19809
ulla 25365
furnis@@ 16024
9@@ 302
inspire 12324
curr@@ 18522
☀ 32179
random 9665
rel@@ 5117
YN@@ 26616
东 31078
Duff 24763
Hul@@ 19676
疾@@ 33391
降@@ 31005
camiones 21854
mixture 7530
emble@@ 13828
sub-@@ 7950
Nether@@ 27051
tuberculosis 18086
Quarter 14237
Quartet 17278
Swimming 22073
遽@@ 33392
-L@@ 20592
Staat@@ 27314
Disabled 17246
twice 4023
gom@@ 17860
shots 6955
dently 20210
ruins 9459
avoured 25629
Caribbean 7298
ง 30105
ourable 27030
nut 11770
nur 20942
nus 23140
Per 24844
resist 10672
Pen 21669
析@@ 33393
Ș 34478
Certi@@ 17962
persi@@ 10766
erst@@ 21769
GAS@@ 28309
satis@@ 20741
capacity 1321
祝@@ 33394
tac@@ 13950
Lup@@ 25076
365 12441
ishi 21420
360 7345
Info 17865
confusion 8383
boss 8682
Vali@@ 22896
censorship 18232
contamination 12231
concep@@ 15657
improve 1103
protect 1740
6@@ 271
sanitation 16587
Dance 16123
루 32180
participating 5107
GRA@@ 23965
merging 20304
寿@@ 30689
creditors 13885
何 33395
ά@@ 33396
lenses 16021
guer@@ 14815
BUSIN@@ 29999
Iglesias 26364
lands@@ 27934
open-@@ 11189
洞@@ 31306
epidemic 14535
viruses 11431
towels 8550
Ж 31183
dem@@ 7206
ABILITY 24974
beef 8147
Mare@@ 21344
Southern 5910
been 58
beer 5072
der@@ 1887
User@@ 26966
子@@ 30390
stellt 25481
리@@ 34479
Upper 10480
ჯ@@ 33397
ains@@ 25204
lesser 13946
advanta@@ 27814
poten@@ 17532
ｿ@@ 33398
teachers 4138
Gross 22101
ă 25625
邻@@ 32597
ं@@ 32181
Bush 4191
朗 33399
互@@ 32598
containing 4980
ther@@ 2711
ze-@@ 18361
Stahl 27183
repatri@@ 18794
Edi@@ 8235
complex 1598
inventory 10490
several 525
alysts 24219
Chapel 17949
tn@@ 6932
ty@@ 4004
fluctu@@ 19852
A320 23969
de.@@ 18156
Sard@@ 22971
Rah@@ 19902
Kur@@ 10620
仲 32182
Hilton 14053
greatest 3001
べ 33400
CENT@@ 24375
Sarah 10485
After 9145
fli@@ 5854
harmonise 17664
研 33401
수 33402
Ě 31079
Franç@@ 23231
Verk@@ 25586
stent 23899
ạ@@ 30252
stens 21779
technological 3790
humanity 5490
D 668
MDGs 24292
opoulou 28720
Gabriel 14778
Kob@@ 19971
opoulos 24308
reira 24406
sanitary 16206
OC@@ 21027
Rudolf 19201
apart 2867
ɒ@@ 31307
gift 4411
bli@@ 5798
OL@@ 8365
specific 715
amos 22607
avan 15892
voy@@ 22484
妻@@ 33403
clubs 4452
meters 2225
17.@@ 3723
precautions 14092
ick 6067
H.@@ 12717
ich 7888
ico 10074
ณ@@ 30290
armed 3839
ica 5909
ice 2682
oriz@@ 24826
Log@@ 15738
ics 3718
420 7068
Anto@@ 27350
cord 14114
core 2421
崖@@ 33404
fl@@ 3109
Yacht 23767
Emperor 12773
Sau@@ 8381
limitation 9991
Cer@@ 8046
绍 34480
intercultural 16844
surround 16193
麩@@ 33405
misleading 13383
genocide 10342
logistical 19333
Saint-@@ 11171
resc@@ 20455
low-cost 16953
HY@@ 24767
intensi@@ 14077
accommodate 6886
Geschichte 27549
管 34481
electorate 16273
ฏ@@ 33406
né 23721
rely 4806
AZ@@ 22947
rels 10623
lags 23580
rell 12811
lage 8640
Eisen@@ 22643
grav@@ 23359
UEFA 20160
head 972
medium 3665
Sundays 12898
cide 17211
26th 6933
heat 2811
hear 2089
ウ@@ 30391
Quart@@ 27969
Acc@@ 7827
adors 18422
Wroc@@ 22462
Interpretation 28419
巧 33407
Uruguay 15487
bids 17947
bargain 16535
neighboring 12595
speciali@@ 8145
Electronic 17172
tsheet 28804
Nes@@ 19745
名 30625
second-@@ 7112
ỉ@@ 32183
umbrel@@ 20826
宠@@ 31615
nl 14493
nm 22439
no 96
Bibi@@ 29428
na 3549
Kennedy 10137
nd 15924
ne 2679
junta 21359
ny 5933
র@@ 31616
nr 22759
ns 3871
nt 9088
nu 21417
Costa 4230
EST 5486
reconsider 18850
preceding 14180
trailers 19315
ESF 19467
ESC 22027
ESA 17258
ESM 24261
n. 23678
terrasse 18460
backward 17528
zim@@ 24497
ball-@@ 24192
简@@ 30430
Title 20268
石@@ 30511
varying 11320
序 31832
PAL@@ 25091
糊@@ 34482
displaying 9956
xy@@ 20577
２@@ 33408
Columbia 9753
Unter@@ 20276
abon@@ 28863
dex 16072
rali@@ 26612
advantage 1963
Countries 12076
propos@@ 27645
Mechan@@ 22603
unver@@ 28103
dez 16312
hatten 29095
li 7983
1968 9359
Has@@ 12690
partitions 19722
fahrt 25824
accumulation 14061
ι@@ 18798
ility 17944
Sin@@ 6409
inland 10129
ゐ 33742
Internation@@ 25306
Ref 7446
Indi@@ 7694
秋@@ 32184
Champion 18173
Theatre 8838
Bruce 13516
Montenegro 10110
内@@ 30568
ecker 18820
ı 24142
520 14550
30@@ 1015
letzten 28639
lberg 19350
ท@@ 29954
phen 27395
Liechtenstein 13386
Fré@@ 24951
refu@@ 18738
groups 881
dea 18493
[ 162
tention 26834
NCC-1701-D 28042
號 32185
Mis@@ 7248
thirty 9355
wär@@ 27554
sina 21998
marble 10935
丛@@ 34483
molto 26525
۴ 30934
ظ@@ 31006
lowers 24143
Gran 8397
ji@@ 6388
Pand@@ 23344
Verhofstadt 25678
預@@ 34484
1st 2505
EBIT 9188
Hungarian 5424
Automation 21782
sofern 29849
Venezu@@ 20423
ol-@@ 18597
galleries 8776
combat@@ 20975
chocolate 7280
stling 24600
Time 1410
˝ 30094
WER@@ 25955
German 436
メ@@ 30344
Azeroth 25632
Teatro 22460
room@@ 18552
districts 8672
actu@@ 12464
說@@ 32599
fauna 11963
unconditional 18205
Geri@@ 27255
北 30935
喷@@ 34485
jö@@ 28618
Freunde 29096
dakis 26589
stroke 9987
Ґ@@ 33409
dropped 5308
hydrogen 13474
Μ 31617
oper@@ 8856
requirements 1032
Marketing 9752
gastronom@@ 26910
east@@ 18257
infringements 13570
Gallagher 22500
UNRWA 26428
speaks 6710
Mac@@ 5445
Kash@@ 19615
半 34486
mass@@ 17591
Nav@@ 16197
ark 8696
reak@@ 23909
Gesellschaft 22243
met@@ 4054
Pris@@ 21260
买 34373
caf@@ 15191
oly@@ 24494
ung-@@ 12253
refund 9870
Dubrovnik 15290
Reini@@ 29554
听@@ 31007
wit@@ 11429
3.000 24851
Gebhardt 26334
worship 8930
blocked 8124
Ghana 17099
aper 21548
eses 10579
coordinates 17120
ң@@ 30575
coordinated 6470
MIT@@ 27205
conversations 11403
ҙ@@ 31308
stock@@ 11204
warranted 21208
convic@@ 24232
湘 33410
equality 4412
ject 13576
NG@@ 21418
opera 8256
Cryp@@ 24551
possibilities 3169
tiqu@@ 26324
realise 6376
є@@ 29944
ಾ 33411
Heathrow 14119
Airbus 9270
married 4735
帝@@ 32186
er-@@ 3685
appeti@@ 13397
begun 5625
adequately 10331
ultimately 4035
Apo@@ 20867
profit 2543
environmentally-friendly 22701
attracted 8478
alistic 10776
App@@ 5776
Nik@@ 20101
unch 8788
datab@@ 26724
క@@ 33412
bal@@ 4162
theory 4208
door@@ 12325
Sus@@ 8136
飞@@ 34487
196@@ 11483
ENP 23847
ENS 27947
ENT 13897
街 30806
揃@@ 31618
impro@@ 10187
拇@@ 33413
Sun@@ 3438
Kreuz@@ 24129
Hus@@ 16132
Julian 16327
impose 5988
Senegal 19020
ción 17113
zu@@ 5783
逸@@ 34488
stä@@ 23822
1000 4471
origin 2987
acco 26613
Provence-Alpes-@@ 27717
5,@@ 3513
59@@ 5252
simplified 11733
ty-@@ 9691
Ny@@ 14809
terranean 22327
Cock@@ 24938
millions 3201
surveys 10812
疆 33414
Adresse 29610
SEC 16217
convention 7030
SEO 20203
SEN 25314
circa 24604
SEK 24564
modernisation 10959
partement 26715
Ran@@ 7567
hut 16966
hus 24110
Situation 26803
sti@@ 2359
holder 8144
Ž@@ 21440
require 1974
diplomatic 6223
r 556
schedul@@ 19493
pre 20042
ane 5468
ang 2371
ana 2081
dium 9735
ann 12738
ano 3532
ani 6120
prostitution 15575
ank 11449
ant 908
usion 17833
ans 1028
” 150
prin@@ 6316
anz 25876
kil@@ 9708
ๆ 30498
ा@@ 30345
Düssel@@ 28511
dining 2876
emphasis 4458
Maltese 22387
hospit@@ 27503
gar@@ 2383
u.a. 29003
Selva 23386
refle@@ 21196
Turbo@@ 26846
ˆ 30263
ell@@ 2602
疗@@ 34489
falls 5005
visitors 1576
way@@ 15893
considered 1303
沪@@ 33415
musi@@ 7706
Krak@@ 26776
atings 24963
catalyst 17549
perpetrated 20934
recipe 10637
ع@@ 28011
Code@@ 28026
thre@@ 7831
NATO-@@ 27032
favor 7374
Novella 24431
ય 33416
crime 2470
explicitly 8274
Tö@@ 28635
笔@@ 34490
Left 9292
centrally 9527
Piazza 9557
ommis@@ 27970
nell 11141
tailor 17581
nels 27654
dly 3186
closure 7351
MP3-@@ 29316
regarding 1462
floods 11102
doku@@ 28952
bought 3227
nette 23265
reveals 8807
к@@ 15645
violated 12197
Dublin@@ 28879
徐@@ 31080
는 33417
刑@@ 33418
violates 18954
ability 1269
harmonised 13003
ﾒ@@ 31833
fails 7537
invoked 21076
Kaiser@@ 23693
Frie@@ 20586
opening 1526
outsourcing 16570
perform@@ 10026
weapons 3002
Lis@@ 15009
ũ@@ 30807
macro-@@ 22078
amed 4170
ћ 33419
나@@ 33420
mann-@@ 24163
Songs 25055
Alb@@ 13951
Messe 13698
successes 11471
region 642
cafes 11442
unspoilt 20930
weap@@ 22889
et@@ 1214
cent@@ 6342
Investment 4870
radic@@ 13730
Ali@@ 8878
color 3146
ke-@@ 10133
， 29657
sampling 17977
Note 17001
Sciences 7080
pole 11663
tious 11256
wen@@ 9668
Events 14592
poli 16401
skil@@ 20674
箱 32600
Buy 18544
Heili@@ 25130
Bus 14987
detected 10159
But 3930
Quest 22881
connec@@ 20591
Córdoba 25967
hardly 4410
Bug 26542
so-@@ 20478
HD-@@ 26687
ň 27849
ken@@ 9898
ership 20427
Barbara 12408
paying 4158
shaft 17871
acking 13139
amend 10174
Cho@@ 9762
conception 10840
gigan@@ 16976
Crusade 25610
ament 10517
sol@@ 4449
Wal@@ 4010
謝@@ 31454
ggen@@ 15545
RIG@@ 25324
someone 1808
converts 21220
直@@ 30264
unten@@ 24901
Offen@@ 25696
umin@@ 13167
Institu@@ 25739
shifts 13739
fort@@ 14189
appar@@ 17121
Silver 13683
todos 26017
SOFTWARE 25193
局@@ 31455
applaud 20698
spl@@ 16855
möchte 29555
presen@@ 22360
producers 3425
arose 11149
dien@@ 24080
changing 2732
implements 19422
modes 10099
ww@@ 17405
Acces@@ 26620
ち@@ 30328
recital 18564
Lagos 22167
复@@ 31081
termination 9849
model 1338
modem 19275
United 392
Lav@@ 17425
guided 4778
mali@@ 14142
kla@@ 24746
electro@@ 10981
differentiation 19158
guides 7908
Shang@@ 28680
announcement 5743
lich@@ 13064
Jobs 16331
身 32187
Pic@@ 10820
immer@@ 13787
ass@@ 3442
Wend@@ 21815
kingdom 5677
Corne@@ 22022
Quick@@ 21487
lec@@ 5534
Rechts@@ 27840
94@@ 5555
eshops 24443
schedules 17180
丘@@ 33421
Bier@@ 27345
holi@@ 12814
99@@ 4040
harmonising 21280
hybri@@ 21446
fotografi@@ 29560
recalls 11887
porte 27531
Army 5577
pes@@ 18863
Arms 21497
Ih@@ 24518
.jpg 2028
Terror 25097
competences 10793
Adv@@ 22582
Listen 27330
Danish 5945
teachings 14145
购 33422
legal 669
Disc 25516
provides 952
provider 2792
У@@ 29420
Photocopying 19478
herr@@ 20413
Starfleet 15906
communicate 5671
Venetian 15120
dum@@ 19862
ద@@ 33423
Rock 8430
퍼@@ 32188
oo 15146
on 15
om 3569
ol 4032
ok 4884
oi 18202
og 18388
of 5
oe 17653
od 3578
reinforcing 14530
oa 21242
mutually 13734
Observatory 19413
ow 12038
ov 8031
ou 8021
ot 5024
os 1751
or 37
op 6247
RAN@@ 26901
communication 1377
struggle 3585
Stutt@@ 27619
张 34491
UEN 23284
究@@ 31834
strictly 6820
hazards 18533
racism 9836
strict 5043
γ 30512
racist 13735
ด@@ 29988
Assad 9552
க@@ 32189
753 24074
750 8330
illuminated 18132
79@@ 6610
フ 31619
atering 27163
Œ@@ 30173
Siim 27275
LED 11303
Pé@@ 19358
Halb@@ 29230
LER 27243
Ѳ 33424
LEX 22780
castles 14191
Toronto 9524
.NET 22507
ễ@@ 31008
politics 2572
roh@@ 25393
vat@@ 22769
cohesion 3702
 30859
How@@ 22917
euch 28760
announcements 16170
Casino@@ 27575
 32190
Justi@@ 15610
ICH 24788
oneself 13247
Vladimir 11075
ICC 15003
ICA 18054
ICE 14252
includes 1243
E. 9607
Behin@@ 25836
ICS 18143
patri@@ 9409
ş 25450
ICT 12282
Adria 26765
忠@@ 32601
ditions 20481
ý@@ 20352
post-@@ 4630
invest 4765
odds 10559
curve 14559
ɾ@@ 30690
GATT 23523
ICs 25279
ENCE 20058
beach@@ 16523
祷@@ 34492
seals 17667
surgical 13298
晏@@ 33425
follow 1405
settlement 4404
娜 33426
ы@@ 21939
subjected 9392
removal 6852
program 887
identi@@ 18855
presentation 3191
Brno 19185
belonging 8016
woman 1388
worse 3797
室@@ 31184
stre@@ 5662
ical 3742
worst 3779
bubbles 18918
soles 18413
stereotyp@@ 18733
ieties 23834
MasterCard 22751
akers 15488
假@@ 31620
manage@@ 17868
Feu@@ 25439
漫@@ 33427
tei 28354
tek 22048
rats 21189
tem 8552
ten 1271
teo 22490
tea 3895
tec 14035
built-in 13049
tee 13344
tex 16626
cultur@@ 24120
rate 867
design 768
patent@@ 17965
ter 1252
tes 3303
tet 11642
Jer@@ 6797
Nor@@ 3743
ν@@ 23304
deeply 5105
fire@@ 5582
commits 20684
guns 10492
ru@@ 1528
Kie@@ 23742
eligibility 17969
⁋ 34493
scientific@@ 27036
combating 6000
killings 14874
directions 7036
oth@@ 9375
epr@@ 20841
CAT@@ 24532
일 32191
moti@@ 12901
deple@@ 20788
~ 8030
options 1886
颜@@ 32602
封 33428
Style 19128
福@@ 31456
screens 11270
texts 4554
[...]
